{
  "version": "1.0",
  "truncation": null,
  "padding": null,
  "added_tokens": [
    {
      "id": 0,
      "content": "[UNK]",
      "single_word": false,
      "lstrip": false,
      "rstrip": false,
      "normalized": false,
      "special": true
    },
    {
      "id": 1,
      "content": "[BOS]",
      "single_word": false,
      "lstrip": false,
      "rstrip": false,
      "normalized": false,
      "special": true
    },
    {
      "id": 2,
      "content": "[EOS]",
      "single_word": false,
      "lstrip": false,
      "rstrip": false,
      "normalized": false,
      "special": true
    }
  ],
  "normalizer": null,
  "pre_tokenizer": {
    "type": "Whitespace"
  },
  "post_processor": null,
  "decoder": null,
  "model": {
    "type": "BPE",
    "dropout": null,
    "unk_token": "[UNK]",
    "continuing_subword_prefix": null,
    "end_of_word_suffix": null,
    "fuse_unk": false,
    "byte_fallback": false,
    "ignore_merges": false,
    "vocab": {
      "[UNK]": 0,
      "[BOS]": 1,
      "[EOS]": 2,
      "!": 3,
      "\"": 4,
      "&": 5,
      "'": 6,
      "(": 7,
      ")": 8,
      ",": 9,
      "-": 10,
      ".": 11,
      "/": 12,
      "0": 13,
      "1": 14,
      "2": 15,
      "3": 16,
      "4": 17,
      "5": 18,
      "6": 19,
      "7": 20,
      "8": 21,
      "9": 22,
      ":": 23,
      ";": 24,
      "?": 25,
      "A": 26,
      "B": 27,
      "C": 28,
      "D": 29,
      "E": 30,
      "F": 31,
      "G": 32,
      "H": 33,
      "I": 34,
      "J": 35,
      "K": 36,
      "L": 37,
      "M": 38,
      "N": 39,
      "O": 40,
      "P": 41,
      "Q": 42,
      "R": 43,
      "S": 44,
      "T": 45,
      "U": 46,
      "V": 47,
      "W": 48,
      "X": 49,
      "Y": 50,
      "Z": 51,
      "[": 52,
      "\\": 53,
      "a": 54,
      "b": 55,
      "c": 56,
      "d": 57,
      "e": 58,
      "f": 59,
      "g": 60,
      "h": 61,
      "i": 62,
      "j": 63,
      "k": 64,
      "l": 65,
      "m": 66,
      "n": 67,
      "o": 68,
      "p": 69,
      "q": 70,
      "r": 71,
      "s": 72,
      "t": 73,
      "u": 74,
      "v": 75,
      "w": 76,
      "x": 77,
      "y": 78,
      "z": 79,
      "{": 80,
      "}": 81,
      "—": 82,
      "‘": 83,
      "’": 84,
      "“": 85,
      "”": 86,
      "th": 87,
      "the": 88,
      "in": 89,
      "an": 90,
      "re": 91,
      "ou": 92,
      "and": 93,
      "on": 94,
      "er": 95,
      "at": 96,
      "he": 97,
      "as": 98,
      "ed": 99,
      "en": 100,
      "of": 101,
      "to": 102,
      "ing": 103,
      "or": 104,
      "ll": 105,
      "is": 106,
      "ar": 107,
      "es": 108,
      "it": 109,
      "ha": 110,
      "le": 111,
      "st": 112,
      "me": 113,
      "be": 114,
      "ow": 115,
      "we": 116,
      "was": 117,
      "se": 118,
      "id": 119,
      "ld": 120,
      "hi": 121,
      "ro": 122,
      "ve": 123,
      "gh": 124,
      "wi": 125,
      "ac": 126,
      "that": 127,
      "no": 128,
      "ly": 129,
      "al": 130,
      "ch": 131,
      "all": 132,
      "ver": 133,
      "you": 134,
      "his": 135,
      "had": 136,
      "ut": 137,
      "li": 138,
      "ir": 139,
      "ay": 140,
      "The": 141,
      "for": 142,
      "ad": 143,
      "un": 144,
      "ri": 145,
      "ght": 146,
      "with": 147,
      "ould": 148,
      "so": 149,
      "ti": 150,
      "sa": 151,
      "oo": 152,
      "they": 153,
      "ent": 154,
      "up": 155,
      "ke": 156,
      "ag": 157,
      "ce": 158,
      "ho": 159,
      "were": 160,
      "out": 161,
      "oun": 162,
      "not": 163,
      "ur": 164,
      "co": 165,
      "our": 166,
      "am": 167,
      "ain": 168,
      "bo": 169,
      "mo": 170,
      "one": 171,
      "us": 172,
      "il": 173,
      "whi": 174,
      "ne": 175,
      "ter": 176,
      "pe": 177,
      "fe": 178,
      "red": 179,
      "ge": 180,
      "have": 181,
      "ard": 182,
      "go": 183,
      "said": 184,
      "ca": 185,
      "ther": 186,
      "ab": 187,
      "my": 188,
      "ong": 189,
      "them": 190,
      "which": 191,
      "rom": 192,
      "but": 193,
      "hat": 194,
      "de": 195,
      "ess": 196,
      "him": 197,
      "own": 198,
      "ck": 199,
      "um": 200,
      "are": 201,
      "ast": 202,
      "from": 203,
      "their": 204,
      "fo": 205,
      "ves": 206,
      "whe": 207,
      "sh": 208,
      "lo": 209,
      "po": 210,
      "ion": 211,
      "ack": 212,
      "could": 213,
      "if": 214,
      "ound": 215,
      "bl": 216,
      "ood": 217,
      "some": 218,
      "there": 219,
      "do": 220,
      "pl": 221,
      "ind": 222,
      "He": 223,
      "ure": 224,
      "way": 225,
      "any": 226,
      "now": 227,
      "gre": 228,
      "ap": 229,
      "end": 230,
      "ex": 231,
      "It": 232,
      "thing": 233,
      "et": 234,
      "Bil": 235,
      "Bilbo": 236,
      "by": 237,
      "fi": 238,
      "ous": 239,
      "very": 240,
      "this": 241,
      "fore": 242,
      "tr": 243,
      "!”": 244,
      "see": 245,
      "ough": 246,
      "ul": 247,
      "ust": 248,
      "ide": 249,
      "ight": 250,
      "qu": 251,
      "would": 252,
      "te": 253,
      "down": 254,
      "ted": 255,
      "king": 256,
      "ven": 257,
      "upon": 258,
      "hall": 259,
      "war": 260,
      "gr": 261,
      "der": 262,
      "can": 263,
      "br": 264,
      "ill": 265,
      "su": 266,
      "into": 267,
      "been": 268,
      "hed": 269,
      ".\"": 270,
      "like": 271,
      "more": 272,
      "ss": 273,
      "ate": 274,
      "ord": 275,
      "ped": 276,
      "ake": 277,
      "ked": 278,
      "ger": 279,
      "con": 280,
      "will": 281,
      "too": 282,
      "com": 283,
      "sp": 284,
      "lf": 285,
      "back": 286,
      "ep": 287,
      "what": 288,
      "who": 289,
      "--": 290,
      "tain": 291,
      "when": 292,
      "long": 293,
      "tre": 294,
      "ins": 295,
      "came": 296,
      "We": 297,
      "im": 298,
      "hor": 299,
      "great": 300,
      "loo": 301,
      "your": 302,
      "other": 303,
      "ers": 304,
      "ace": 305,
      "ic": 306,
      "ts": 307,
      ",”": 308,
      "tion": 309,
      "man": 310,
      "af": 311,
      "el": 312,
      "before": 313,
      "pre": 314,
      "time": 315,
      "op": 316,
      "But": 317,
      "ark": 318,
      "over": 319,
      "itt": 320,
      "dwar": 321,
      "dr": 322,
      "mer": 323,
      "nd": 324,
      "au": 325,
      "str": 326,
      "ought": 327,
      "ite": 328,
      ".”": 329,
      "day": 330,
      "low": 331,
      "again": 332,
      "come": 333,
      "cr": 334,
      "ant": 335,
      "They": 336,
      "ey": 337,
      "urn": 338,
      "about": 339,
      "ble": 340,
      "ci": 341,
      "bit": 342,
      "able": 343,
      "get": 344,
      "wo": 345,
      "ment": 346,
      "dis": 347,
      "than": 348,
      "ation": 349,
      ",\"": 350,
      "light": 351,
      "ever": 352,
      "only": 353,
      "est": 354,
      "thr": 355,
      "There": 356,
      "dwarves": 357,
      "ak": 358,
      "per": 359,
      "ward": 360,
      "ade": 361,
      "ountain": 362,
      "pro": 363,
      "ally": 364,
      "cl": 365,
      "ass": 366,
      "turn": 367,
      "self": 368,
      "hand": 369,
      "ink": 370,
      "men": 371,
      "should": 372,
      "ittle": 373,
      "ct": 374,
      "cre": 375,
      "good": 376,
      "little": 377,
      "So": 378,
      "ive": 379,
      "where": 380,
      "led": 381,
      "last": 382,
      "its": 383,
      "Thor": 384,
      "did": 385,
      "Thorin": 386,
      "med": 387,
      "off": 388,
      "under": 389,
      "after": 390,
      "ick": 391,
      "ty": 392,
      "enger": 393,
      "still": 394,
      "read": 395,
      "even": 396,
      "far": 397,
      "ance": 398,
      "head": 399,
      "ath": 400,
      "wor": 401,
      "ig": 402,
      "par": 403,
      "then": 404,
      "mb": 405,
      "most": 406,
      "know": 407,
      "ning": 408,
      "You": 409,
      "ence": 410,
      "Chall": 411,
      "che": 412,
      "dark": 413,
      "ried": 414,
      "got": 415,
      "Challenger": 416,
      "wat": 417,
      "rof": 418,
      "ans": 419,
      "In": 420,
      "?\"": 421,
      "made": 422,
      "ting": 423,
      "dd": 424,
      "gl": 425,
      "round": 426,
      "ine": 427,
      "gu": 428,
      "went": 429,
      "aw": 430,
      "how": 431,
      "right": 432,
      "And": 433,
      "ved": 434,
      "rofess": 435,
      "Then": 436,
      "through": 437,
      "side": 438,
      "ull": 439,
      "here": 440,
      "ave": 441,
      "may": 442,
      "well": 443,
      "fl": 444,
      "thought": 445,
      "say": 446,
      "ry": 447,
      "rofessor": 448,
      "while": 449,
      "ish": 450,
      "must": 451,
      "air": 452,
      "away": 453,
      "ful": 454,
      "wood": 455,
      "alf": 456,
      "fell": 457,
      "don": 458,
      "beg": 459,
      "What": 460,
      "hap": 461,
      "Professor": 462,
      "ft": 463,
      "less": 464,
      "spe": 465,
      "ort": 466,
      "Gand": 467,
      "has": 468,
      "sm": 469,
      "age": 470,
      "Gandalf": 471,
      "gobl": 472,
      "di": 473,
      "mu": 474,
      "night": 475,
      "No": 476,
      "ang": 477,
      "ummer": 478,
      "irst": 479,
      "door": 480,
      "ened": 481,
      "bbit": 482,
      "never": 483,
      "?”": 484,
      "ear": 485,
      "new": 486,
      "ach": 487,
      "many": 488,
      "two": 489,
      "sto": 490,
      "vo": 491,
      "Lord": 492,
      "old": 493,
      "vi": 494,
      "think": 495,
      "hobbit": 496,
      "found": 497,
      "hun": 498,
      "pt": 499,
      "ature": 500,
      "lee": 501,
      "eyes": 502,
      "much": 503,
      "cle": 504,
      "hind": 505,
      "just": 506,
      "ue": 507,
      "such": 508,
      "first": 509,
      "wards": 510,
      "use": 511,
      "dden": 512,
      "ather": 513,
      "car": 514,
      "des": 515,
      "won": 516,
      "word": 517,
      "res": 518,
      "these": 519,
      "Summer": 520,
      "though": 521,
      "ving": 522,
      "Summerlee": 523,
      "ring": 524,
      "bre": 525,
      "Go": 526,
      "coun": 527,
      "saw": 528,
      "pr": 529,
      "ten": 530,
      "ms": 531,
      "bet": 532,
      "That": 533,
      "mor": 534,
      "Mountain": 535,
      "cli": 536,
      "agon": 537,
      "hear": 538,
      "behind": 539,
      "agg": 540,
      "rock": 541,
      "act": 542,
      "ared": 543,
      "ows": 544,
      "trees": 545,
      "fri": 546,
      "might": 547,
      "heard": 548,
      "goblins": 549,
      "ies": 550,
      "Jo": 551,
      "shall": 552,
      "seemed": 553,
      "looked": 554,
      "!\"": 555,
      "water": 556,
      "friend": 557,
      "find": 558,
      "amp": 559,
      "every": 560,
      "land": 561,
      "ron": 562,
      "wa": 563,
      "cour": 564,
      "clo": 565,
      "ff": 566,
      "hel": 567,
      "ross": 568,
      "hn": 569,
      "left": 570,
      "les": 571,
      "sing": 572,
      "ated": 573,
      "John": 574,
      "abo": 575,
      "vent": 576,
      "place": 577,
      "sup": 578,
      "soon": 579,
      "poin": 580,
      "ity": 581,
      "yet": 582,
      "til": 583,
      "among": 584,
      "pped": 585,
      "az": 586,
      "ple": 587,
      "llow": 588,
      "nothing": 589,
      "fire": 590,
      "ls": 591,
      "uck": 592,
      "ise": 593,
      "tic": 594,
      "dragon": 595,
      "make": 596,
      "seen": 597,
      "above": 598,
      "Be": 599,
      "sha": 600,
      "full": 601,
      "lay": 602,
      "ank": 603,
      "river": 604,
      "feet": 605,
      "As": 606,
      "sudden": 607,
      "Mr": 608,
      "ef": 609,
      "tal": 610,
      "wh": 611,
      "ches": 612,
      "mountain": 613,
      "outh": 614,
      "ist": 615,
      "himself": 616,
      "rem": 617,
      "near": 618,
      "appe": 619,
      "open": 620,
      "call": 621,
      "face": 622,
      "ser": 623,
      "xt": 624,
      "stre": 625,
      "ling": 626,
      "lves": 627,
      "ness": 628,
      "rest": 629,
      "until": 630,
      "ready": 631,
      "bus": 632,
      "ice": 633,
      "thre": 634,
      "let": 635,
      "things": 636,
      "Now": 637,
      "sil": 638,
      "ction": 639,
      "once": 640,
      "star": 641,
      "something": 642,
      "ched": 643,
      "pass": 644,
      "ings": 645,
      "hard": 646,
      "put": 647,
      "aug": 648,
      "row": 649,
      "sent": 650,
      "creature": 651,
      "dre": 652,
      "stand": 653,
      "Well": 654,
      "aking": 655,
      "cried": 656,
      "orn": 657,
      "without": 658,
      "ale": 659,
      "gs": 660,
      "ng": 661,
      "ob": 662,
      "sho": 663,
      "going": 664,
      "deep": 665,
      "high": 666,
      "along": 667,
      "If": 668,
      "fall": 669,
      "try": 670,
      "tree": 671,
      "mar": 672,
      "sur": 673,
      "bro": 674,
      "iz": 675,
      "nor": 676,
      "ste": 677,
      "turned": 678,
      "om": 679,
      "sed": 680,
      "ili": 681,
      "ose": 682,
      "path": 683,
      "fic": 684,
      "look": 685,
      "This": 686,
      "ping": 687,
      "ange": 688,
      "ook": 689,
      "black": 690,
      "course": 691,
      "Bagg": 692,
      "dif": 693,
      "lt": 694,
      "ones": 695,
      "feel": 696,
      "began": 697,
      "Baggins": 698,
      "dan": 699,
      "sl": 700,
      "set": 701,
      "gold": 702,
      "mat": 703,
      "take": 704,
      "till": 705,
      "At": 706,
      "sk": 707,
      "sat": 708,
      "ground": 709,
      "mon": 710,
      "run": 711,
      "sit": 712,
      "stoo": 713,
      "moment": 714,
      "took": 715,
      "cas": 716,
      "mis": 717,
      "tun": 718,
      "tor": 719,
      "same": 720,
      "ople": 721,
      "small": 722,
      "Ind": 723,
      "cur": 724,
      "those": 725,
      "ird": 726,
      "used": 727,
      "tell": 728,
      "Indi": 729,
      "ame": 730,
      "chi": 731,
      "lar": 732,
      "lled": 733,
      "sun": 734,
      "llum": 735,
      "ways": 736,
      "forest": 737,
      "days": 738,
      "wonder": 739,
      "ious": 740,
      "att": 741,
      "dist": 742,
      "camp": 743,
      "give": 744,
      "ru": 745,
      "wall": 746,
      "ined": 747,
      "quite": 748,
      "cha": 749,
      "ible": 750,
      "ince": 751,
      "aster": 752,
      "across": 753,
      "ign": 754,
      "each": 755,
      "hu": 756,
      "pon": 757,
      "sc": 758,
      "asked": 759,
      "ary": 760,
      "stone": 761,
      "morning": 762,
      "spo": 763,
      "ud": 764,
      "ren": 765,
      "alin": 766,
      "ards": 767,
      "help": 768,
      "venture": 769,
      "Sm": 770,
      "ail": 771,
      "cted": 772,
      "wr": 773,
      "lls": 774,
      "people": 775,
      "poss": 776,
      "tered": 777,
      "elves": 778,
      "happ": 779,
      "mes": 780,
      "shad": 781,
      "ond": 782,
      "tow": 783,
      "life": 784,
      "dou": 785,
      "enough": 786,
      "young": 787,
      "lie": 788,
      "rible": 789,
      "comp": 790,
      "suddenly": 791,
      "On": 792,
      "aid": 793,
      "another": 794,
      "ished": 795,
      "bran": 796,
      "clear": 797,
      "Smaug": 798,
      "oud": 799,
      "ene": 800,
      "ush": 801,
      "friends": 802,
      "Th": 803,
      "bed": 804,
      "cer": 805,
      "ily": 806,
      "sound": 807,
      "edge": 808,
      "toge": 809,
      "half": 810,
      "ket": 811,
      "deed": 812,
      "ions": 813,
      "brought": 814,
      "together": 815,
      "fast": 816,
      "kn": 817,
      "ken": 818,
      "being": 819,
      "alone": 820,
      "av": 821,
      "ks": 822,
      "whole": 823,
      "Gollum": 824,
      "wait": 825,
      "gave": 826,
      "jo": 827,
      "ons": 828,
      "ween": 829,
      "ult": 830,
      "between": 831,
      "three": 832,
      "stood": 833,
      "mp": 834,
      "sure": 835,
      "slow": 836,
      "wind": 837,
      "reme": 838,
      "ering": 839,
      "also": 840,
      "lost": 841,
      "expe": 842,
      "doub": 843,
      "done": 844,
      "thin": 845,
      "really": 846,
      "few": 847,
      "Some": 848,
      "ront": 849,
      "gi": 850,
      "gone": 851,
      "mind": 852,
      "green": 853,
      "others": 854,
      "dire": 855,
      "Bo": 856,
      "cent": 857,
      "always": 858,
      "adventure": 859,
      "All": 860,
      "dy": 861,
      "foo": 862,
      "mit": 863,
      "hes": 864,
      "follow": 865,
      "coming": 866,
      "world": 867,
      "part": 868,
      "danger": 869,
      "since": 870,
      "aces": 871,
      "quick": 872,
      "hands": 873,
      "point": 874,
      "mountains": 875,
      "huge": 876,
      "For": 877,
      "dred": 878,
      "pi": 879,
      "idd": 880,
      "alley": 881,
      "hundred": 882,
      "cliff": 883,
      "bur": 884,
      "gg": 885,
      "je": 886,
      "sci": 887,
      "ens": 888,
      "top": 889,
      "towards": 890,
      "ars": 891,
      "already": 892,
      "hope": 893,
      "strange": 894,
      "mber": 895,
      "town": 896,
      "bar": 897,
      "estion": 898,
      "selves": 899,
      "ider": 900,
      "pose": 901,
      "exce": 902,
      "white": 903,
      "large": 904,
      "fle": 905,
      "tro": 906,
      "below": 907,
      "plate": 908,
      "ces": 909,
      "cri": 910,
      "knew": 911,
      "table": 912,
      "valley": 913,
      "qui": 914,
      "guess": 915,
      "voice": 916,
      "Balin": 917,
      "His": 918,
      "Ro": 919,
      "bird": 920,
      "ced": 921,
      "four": 922,
      "front": 923,
      "hur": 924,
      "hum": 925,
      "tin": 926,
      "ery": 927,
      "hen": 928,
      "wiz": 929,
      "ushed": 930,
      "cause": 931,
      "better": 932,
      "pleas": 933,
      "kind": 934,
      "enti": 935,
      "moon": 936,
      "against": 937,
      "tunne": 938,
      "plateau": 939,
      "eag": 940,
      "ered": 941,
      "her": 942,
      "lad": 943,
      "lake": 944,
      "ned": 945,
      "ome": 946,
      "ouse": 947,
      "ung": 948,
      "keep": 949,
      "cold": 950,
      "next": 951,
      "haps": 952,
      "passed": 953,
      "flo": 954,
      "min": 955,
      "leep": 956,
      "step": 957,
      "hold": 958,
      "Indians": 959,
      "To": 960,
      "fair": 961,
      "sn": 962,
      "inter": 963,
      "mean": 964,
      "vered": 965,
      "ute": 966,
      "bled": 967,
      "however": 968,
      "climb": 969,
      "Wh": 970,
      "ber": 971,
      "bes": 972,
      "pers": 973,
      "ash": 974,
      "assa": 975,
      "form": 976,
      "forward": 977,
      "iles": 978,
      "ular": 979,
      "words": 980,
      "Beorn": 981,
      "direction": 982,
      "When": 983,
      "sign": 984,
      "vis": 985,
      "arm": 986,
      "times": 987,
      "need": 988,
      "cond": 989,
      "press": 990,
      "strong": 991,
      "break": 992,
      "stream": 993,
      "doubt": 994,
      "South": 995,
      "big": 996,
      "wal": 997,
      "ask": 998,
      "ching": 999,
      "felt": 1000,
      "question": 1001,
      "imp": 1002,
      "looking": 1003,
      "preci": 1004,
      "itting": 1005,
      "matter": 1006,
      "certain": 1007,
      "wizard": 1008,
      "bank": 1009,
      "jour": 1010,
      "tri": 1011,
      "iness": 1012,
      "return": 1013,
      "least": 1014,
      "safe": 1015,
      "myself": 1016,
      "dead": 1017,
      "ended": 1018,
      "ears": 1019,
      "appeared": 1020,
      "called": 1021,
      "cu": 1022,
      "dro": 1023,
      "ev": 1024,
      "eat": 1025,
      "oc": 1026,
      "ori": 1027,
      "wild": 1028,
      "ained": 1029,
      "fear": 1030,
      "care": 1031,
      "chief": 1032,
      "known": 1033,
      "Wi": 1034,
      "she": 1035,
      "want": 1036,
      "sol": 1037,
      "body": 1038,
      "gry": 1039,
      "comfor": 1040,
      "getting": 1041,
      "mbur": 1042,
      "Not": 1043,
      "pris": 1044,
      "Bombur": 1045,
      "fter": 1046,
      "sort": 1047,
      "ye": 1048,
      "esca": 1049,
      "belie": 1050,
      "lying": 1051,
      "creatures": 1052,
      "After": 1053,
      "Bard": 1054,
      "aut": 1055,
      "bow": 1056,
      "best": 1057,
      "eas": 1058,
      "ran": 1059,
      "whis": 1060,
      "wide": 1061,
      "told": 1062,
      "both": 1063,
      "present": 1064,
      "How": 1065,
      "Lake": 1066,
      "fur": 1067,
      "fact": 1068,
      "sw": 1069,
      "sli": 1070,
      "song": 1071,
      "ually": 1072,
      "rep": 1073,
      "asure": 1074,
      "bey": 1075,
      "move": 1076,
      "shout": 1077,
      "horrible": 1078,
      "draw": 1079,
      "aken": 1080,
      "woods": 1081,
      "hardly": 1082,
      "ither": 1083,
      "line": 1084,
      "ner": 1085,
      "sir": 1086,
      "ught": 1087,
      "indeed": 1088,
      "arp": 1089,
      "legs": 1090,
      "because": 1091,
      "ached": 1092,
      "home": 1093,
      "ney": 1094,
      "cked": 1095,
      "show": 1096,
      "cir": 1097,
      "pes": 1098,
      "ub": 1099,
      "caught": 1100,
      "anything": 1101,
      "grew": 1102,
      "grow": 1103,
      "suppose": 1104,
      "diffic": 1105,
      "slowly": 1106,
      "person": 1107,
      "journey": 1108,
      "My": 1109,
      "eld": 1110,
      "ges": 1111,
      "lau": 1112,
      "nar": 1113,
      "pic": 1114,
      "ys": 1115,
      "anim": 1116,
      "real": 1117,
      "meet": 1118,
      "beard": 1119,
      "road": 1120,
      "cho": 1121,
      "char": 1122,
      "ump": 1123,
      "inside": 1124,
      "count": 1125,
      "ponies": 1126,
      "possible": 1127,
      "ape": 1128,
      "cess": 1129,
      "food": 1130,
      "hour": 1131,
      "rather": 1132,
      "van": 1133,
      "ago": 1134,
      "que": 1135,
      "country": 1136,
      "ize": 1137,
      "tunnel": 1138,
      "animal": 1139,
      "Fili": 1140,
      "athe": 1141,
      "house": 1142,
      "miles": 1143,
      "od": 1144,
      "slo": 1145,
      "sitting": 1146,
      "ense": 1147,
      "covered": 1148,
      "boat": 1149,
      "appear": 1150,
      "business": 1151,
      "chair": 1152,
      "El": 1153,
      "nat": 1154,
      "scr": 1155,
      "reas": 1156,
      "begin": 1157,
      "fully": 1158,
      "shot": 1159,
      "branches": 1160,
      "quiet": 1161,
      "believe": 1162,
      "beyond": 1163,
      "Al": 1164,
      "By": 1165,
      "Su": 1166,
      "fin": 1167,
      "fre": 1168,
      "name": 1169,
      "ris": 1170,
      "swi": 1171,
      "leave": 1172,
      "rope": 1173,
      "neare": 1174,
      "feren": 1175,
      "poc": 1176,
      "plain": 1177,
      "cannot": 1178,
      "treasure": 1179,
      "evening": 1180,
      "xton": 1181,
      "compan": 1182,
      "remember": 1183,
      "Roxton": 1184,
      "TH": 1185,
      "flow": 1186,
      "ged": 1187,
      "luck": 1188,
      "mag": 1189,
      "ror": 1190,
      "smo": 1191,
      "spl": 1192,
      "thick": 1193,
      "arms": 1194,
      "lea": 1195,
      "does": 1196,
      "plan": 1197,
      "work": 1198,
      "answ": 1199,
      "talk": 1200,
      "nearly": 1201,
      "distance": 1202,
      "Don": 1203,
      "One": 1204,
      "father": 1205,
      "kill": 1206,
      "wish": 1207,
      "ener": 1208,
      "ition": 1209,
      "coll": 1210,
      "filled": 1211,
      "opened": 1212,
      "guard": 1213,
      "rocks": 1214,
      "dream": 1215,
      "eneath": 1216,
      "Amer": 1217,
      "gri": 1218,
      "passa": 1219,
      "sword": 1220,
      "bear": 1221,
      "room": 1222,
      "hole": 1223,
      "whether": 1224,
      "short": 1225,
      "blue": 1226,
      "bring": 1227,
      "imag": 1228,
      "ical": 1229,
      "darkness": 1230,
      "fellow": 1231,
      "vol": 1232,
      "heart": 1233,
      "foot": 1234,
      "barre": 1235,
      "Ameri": 1236,
      "Come": 1237,
      "cross": 1238,
      "ile": 1239,
      "making": 1240,
      "ra": 1241,
      "shi": 1242,
      "sight": 1243,
      "sleep": 1244,
      "taken": 1245,
      "inte": 1246,
      "held": 1247,
      "lling": 1248,
      "stones": 1249,
      "ident": 1250,
      "aged": 1251,
      "conf": 1252,
      "longer": 1253,
      "dwarf": 1254,
      "cry": 1255,
      "ations": 1256,
      "heads": 1257,
      "lands": 1258,
      "silver": 1259,
      "attle": 1260,
      "floor": 1261,
      "beneath": 1262,
      "ew": 1263,
      "gro": 1264,
      "num": 1265,
      "pri": 1266,
      "sor": 1267,
      "ining": 1268,
      "rely": 1269,
      "orm": 1270,
      "lead": 1271,
      "almost": 1272,
      "ably": 1273,
      "eye": 1274,
      "close": 1275,
      "fright": 1276,
      "rain": 1277,
      "wand": 1278,
      "yes": 1279,
      "beast": 1280,
      "ides": 1281,
      "outside": 1282,
      "iled": 1283,
      "poor": 1284,
      "teen": 1285,
      "carried": 1286,
      "ized": 1287,
      "differen": 1288,
      "feeling": 1289,
      "interest": 1290,
      "dread": 1291,
      "ives": 1292,
      "lk": 1293,
      "late": 1294,
      "pick": 1295,
      "tall": 1296,
      "uff": 1297,
      "lived": 1298,
      "add": 1299,
      "within": 1300,
      "cons": 1301,
      "else": 1302,
      "understand": 1303,
      "carry": 1304,
      "why": 1305,
      "remark": 1306,
      "opening": 1307,
      "further": 1308,
      "answer": 1309,
      "Ar": 1310,
      "ER": 1311,
      "Even": 1312,
      "From": 1313,
      "Nor": 1314,
      "cat": 1315,
      "cut": 1316,
      "dri": 1317,
      "tent": 1318,
      "val": 1319,
      "eng": 1320,
      "enorm": 1321,
      "ited": 1322,
      "chance": 1323,
      "themselves": 1324,
      "dered": 1325,
      "apped": 1326,
      "ending": 1327,
      "exp": 1328,
      "grass": 1329,
      "peri": 1330,
      "speak": 1331,
      "precious": 1332,
      "reason": 1333,
      "enormous": 1334,
      "Let": 1335,
      "bad": 1336,
      "pack": 1337,
      "swe": 1338,
      "tw": 1339,
      "ert": 1340,
      "hair": 1341,
      "leap": 1342,
      "stant": 1343,
      "beaut": 1344,
      "Their": 1345,
      "caves": 1346,
      "exc": 1347,
      "true": 1348,
      "idea": 1349,
      "brid": 1350,
      "cially": 1351,
      "perhaps": 1352,
      "Soon": 1353,
      "goblin": 1354,
      "stopped": 1355,
      "view": 1356,
      "descri": 1357,
      "case": 1358,
      "spoke": 1359,
      "expect": 1360,
      "With": 1361,
      "),": 1362,
      "Fo": 1363,
      "gun": 1364,
      "gent": 1365,
      "gate": 1366,
      "hood": 1367,
      "pow": 1368,
      "pur": 1369,
      "years": 1370,
      "ater": 1371,
      "sever": 1372,
      "iders": 1373,
      "forgot": 1374,
      "kept": 1375,
      "ages": 1376,
      "fect": 1377,
      "cave": 1378,
      "Here": 1379,
      "tru": 1380,
      "trou": 1381,
      "shadow": 1382,
      "shadows": 1383,
      "expected": 1384,
      "adventures": 1385,
      "breakfast": 1386,
      "several": 1387,
      "Kili": 1388,
      "Malone": 1389,
      "Of": 1390,
      "bu": 1391,
      "hang": 1392,
      "ix": 1393,
      "ny": 1394,
      "none": 1395,
      "rang": 1396,
      "reached": 1397,
      "ating": 1398,
      "lear": 1399,
      "ster": 1400,
      "bered": 1401,
      "noise": 1402,
      "deal": 1403,
      "folk": 1404,
      "log": 1405,
      "bling": 1406,
      "five": 1407,
      "letter": 1408,
      "broken": 1409,
      "entific": 1410,
      "Why": 1411,
      "beside": 1412,
      "beginning": 1413,
      "Dori": 1414,
      "HA": 1415,
      "Ri": 1416,
      "Where": 1417,
      "cing": 1418,
      "fer": 1419,
      "gle": 1420,
      "lit": 1421,
      "mid": 1422,
      "mouth": 1423,
      "pin": 1424,
      "pat": 1425,
      "sme": 1426,
      "ual": 1427,
      "anted": 1428,
      "angry": 1429,
      "heav": 1430,
      "ised": 1431,
      "secre": 1432,
      "These": 1433,
      "kets": 1434,
      "wered": 1435,
      "iful": 1436,
      "spiders": 1437,
      "crack": 1438,
      "vice": 1439,
      "Gobl": 1440,
      "fallen": 1441,
      "sky": 1442,
      "scientific": 1443,
      "human": 1444,
      "prison": 1445,
      "Dale": 1446,
      "Master": 1447,
      "Will": 1448,
      "loud": 1449,
      "ns": 1450,
      "son": 1451,
      "ors": 1452,
      "bot": 1453,
      "umbled": 1454,
      "asty": 1455,
      "experi": 1456,
      "trun": 1457,
      "seem": 1458,
      "casion": 1459,
      "given": 1460,
      "iddle": 1461,
      "ject": 1462,
      "birds": 1463,
      "bright": 1464,
      "battle": 1465,
      "du": 1466,
      "ol": 1467,
      "order": 1468,
      "itself": 1469,
      "ames": 1470,
      "cap": 1471,
      "posit": 1472,
      "tra": 1473,
      "ments": 1474,
      "answered": 1475,
      "ddenly": 1476,
      "aze": 1477,
      "drew": 1478,
      "wonderful": 1479,
      "comfortable": 1480,
      "shouted": 1481,
      "Suddenly": 1482,
      "gleam": 1483,
      "heavy": 1484,
      "Very": 1485,
      "ald": 1486,
      "aim": 1487,
      "boo": 1488,
      "ele": 1489,
      "fam": 1490,
      "fif": 1491,
      "gure": 1492,
      "gener": 1493,
      "uri": 1494,
      "ative": 1495,
      "ashed": 1496,
      "often": 1497,
      "became": 1498,
      "lic": 1499,
      "col": 1500,
      "sharp": 1501,
      "figure": 1502,
      "sub": 1503,
      "ately": 1504,
      "spring": 1505,
      "pret": 1506,
      "wolves": 1507,
      "watch": 1508,
      "glar": 1509,
      "bushes": 1510,
      "followed": 1511,
      "athered": 1512,
      "beautiful": 1513,
      "Gre": 1514,
      "Good": 1515,
      "Our": 1516,
      "Who": 1517,
      "dare": 1518,
      "either": 1519,
      "gloo": 1520,
      "gathered": 1521,
      "laid": 1522,
      "tou": 1523,
      "rose": 1524,
      "account": 1525,
      "alive": 1526,
      "rifle": 1527,
      "amid": 1528,
      "iling": 1529,
      "ordin": 1530,
      "share": 1531,
      "silent": 1532,
      "obser": 1533,
      "certainly": 1534,
      "occasion": 1535,
      "laugh": 1536,
      "narrow": 1537,
      "different": 1538,
      "consider": 1539,
      "bridge": 1540,
      ").": 1541,
      "II": 1542,
      "Per": 1543,
      "ek": 1544,
      "em": 1545,
      "fr": 1546,
      "map": 1547,
      "past": 1548,
      "sion": 1549,
      "size": 1550,
      "ton": 1551,
      "reg": 1552,
      "attered": 1553,
      "art": 1554,
      "arch": 1555,
      "having": 1556,
      "second": 1557,
      "hill": 1558,
      "aint": 1559,
      "neck": 1560,
      "umped": 1561,
      "therefore": 1562,
      "places": 1563,
      "tee": 1564,
      "ices": 1565,
      "stra": 1566,
      "glad": 1567,
      "earth": 1568,
      "silence": 1569,
      "pie": 1570,
      "difficult": 1571,
      "dreadful": 1572,
      "secret": 1573,
      "En": 1574,
      "OR": 1575,
      "Yes": 1576,
      "cus": 1577,
      "ses": 1578,
      "ture": 1579,
      "thro": 1580,
      "stick": 1581,
      "wel": 1582,
      "ceed": 1583,
      "terrible": 1584,
      "dear": 1585,
      "lot": 1586,
      "exped": 1587,
      "fight": 1588,
      "tem": 1589,
      "likely": 1590,
      "contin": 1591,
      "claim": 1592,
      "worth": 1593,
      "parts": 1594,
      "news": 1595,
      "running": 1596,
      "Indian": 1597,
      "waiting": 1598,
      "dangerous": 1599,
      "except": 1600,
      "THE": 1601,
      "magic": 1602,
      "North": 1603,
      "Gate": 1604,
      "Mir": 1605,
      "bb": 1606,
      "cy": 1607,
      "fat": 1608,
      "hon": 1609,
      "iam": 1610,
      "laug": 1611,
      "ni": 1612,
      "nasty": 1613,
      "rad": 1614,
      "rows": 1615,
      "tled": 1616,
      "tried": 1617,
      "ured": 1618,
      "yed": 1619,
      "ants": 1620,
      "reach": 1621,
      "ates": 1622,
      "stay": 1623,
      "idence": 1624,
      "live": 1625,
      "forth": 1626,
      "und": 1627,
      "ghter": 1628,
      "save": 1629,
      "fier": 1630,
      "started": 1631,
      "monstr": 1632,
      "guessed": 1633,
      "escape": 1634,
      "songs": 1635,
      "swift": 1636,
      "explo": 1637,
      "trouble": 1638,
      "River": 1639,
      "laughed": 1640,
      ".)": 1641,
      "Mo": 1642,
      "burn": 1643,
      "cor": 1644,
      "elf": 1645,
      "emp": 1646,
      "fac": 1647,
      "gli": 1648,
      "ied": 1649,
      "ps": 1650,
      "pal": 1651,
      "pter": 1652,
      "rough": 1653,
      "race": 1654,
      "taking": 1655,
      "wings": 1656,
      "incl": 1657,
      "height": 1658,
      "meant": 1659,
      "alth": 1660,
      "liar": 1661,
      "shri": 1662,
      "love": 1663,
      "trave": 1664,
      "audi": 1665,
      "ledge": 1666,
      "doors": 1667,
      "pointed": 1668,
      "remain": 1669,
      "standing": 1670,
      "climbed": 1671,
      "slipped": 1672,
      "leaves": 1673,
      "passage": 1674,
      "William": 1675,
      "ordinary": 1676,
      "straight": 1677,
      ".'": 1678,
      "Bert": 1679,
      "Dain": 1680,
      "Glad": 1681,
      "Just": 1682,
      "King": 1683,
      "Qu": 1684,
      "ah": 1685,
      "fing": 1686,
      "fine": 1687,
      "flying": 1688,
      "ire": 1689,
      "kwood": 1690,
      "lan": 1691,
      "ler": 1692,
      "mark": 1693,
      "pale": 1694,
      "rushed": 1695,
      "six": 1696,
      "yards": 1697,
      "instant": 1698,
      "ref": 1699,
      "espe": 1700,
      "roar": 1701,
      "acty": 1702,
      "utes": 1703,
      "lies": 1704,
      "cover": 1705,
      "ourselves": 1706,
      "moved": 1707,
      "shining": 1708,
      "doing": 1709,
      "spir": 1710,
      "dry": 1711,
      "stru": 1712,
      "fellah": 1713,
      "spect": 1714,
      "hung": 1715,
      "single": 1716,
      "marked": 1717,
      "golden": 1718,
      "torches": 1719,
      "happened": 1720,
      "surely": 1721,
      "trolls": 1722,
      "easy": 1723,
      "circle": 1724,
      "odacty": 1725,
      "barrels": 1726,
      "forgotten": 1727,
      "position": 1728,
      "general": 1729,
      "Great": 1730,
      "Mirkwood": 1731,
      "pterodacty": 1732,
      "Gladys": 1733,
      "CHA": 1734,
      "IN": 1735,
      "West": 1736,
      "book": 1737,
      "dim": 1738,
      "pap": 1739,
      "tle": 1740,
      "ats": 1741,
      "hea": 1742,
      "isten": 1743,
      "stri": 1744,
      "met": 1745,
      "tive": 1746,
      "entr": 1747,
      "shut": 1748,
      "track": 1749,
      "trust": 1750,
      "comes": 1751,
      "party": 1752,
      "early": 1753,
      "rond": 1754,
      "talking": 1755,
      "stars": 1756,
      "happen": 1757,
      "eager": 1758,
      "steps": 1759,
      "nearer": 1760,
      "companions": 1761,
      "smoke": 1762,
      "learned": 1763,
      "botto": 1764,
      "fierce": 1765,
      "audience": 1766,
      "Ex": 1767,
      "Map": 1768,
      "Still": 1769,
      "Your": 1770,
      "fish": 1771,
      "faces": 1772,
      "gar": 1773,
      "leng": 1774,
      "master": 1775,
      "middle": 1776,
      "prom": 1777,
      "rup": 1778,
      "tted": 1779,
      "west": 1780,
      "zz": 1781,
      "inc": 1782,
      "aned": 1783,
      "reed": 1784,
      "ase": 1785,
      "isted": 1786,
      "leg": 1787,
      "roo": 1788,
      "rolled": 1789,
      "vel": 1790,
      "liked": 1791,
      "fortun": 1792,
      "admit": 1793,
      "absol": 1794,
      "dev": 1795,
      "grap": 1796,
      "partic": 1797,
      "guards": 1798,
      "desc": 1799,
      "closed": 1800,
      "supper": 1801,
      "walls": 1802,
      "branch": 1803,
      "science": 1804,
      "pleasant": 1805,
      "White": 1806,
      "dropped": 1807,
      "picture": 1808,
      "meeting": 1809,
      "pocket": 1810,
      "grim": 1811,
      "hanging": 1812,
      "prisoners": 1813,
      "expedition": 1814,
      "especially": 1815,
      "Maple": 1816,
      "absolute": 1817,
      "East": 1818,
      "Hill": 1819,
      "bound": 1820,
      "corn": 1821,
      "ez": 1822,
      "igh": 1823,
      "oes": 1824,
      "por": 1825,
      "pull": 1826,
      "raid": 1827,
      "sy": 1828,
      "twi": 1829,
      "tched": 1830,
      "wise": 1831,
      "thous": 1832,
      "rel": 1833,
      "asc": 1834,
      "tory": 1835,
      "orge": 1836,
      "stuck": 1837,
      "stud": 1838,
      "means": 1839,
      "acle": 1840,
      "unning": 1841,
      "unknown": 1842,
      "cei": 1843,
      "ambo": 1844,
      "tering": 1845,
      "grey": 1846,
      "appro": 1847,
      "express": 1848,
      "seems": 1849,
      "spider": 1850,
      "impossible": 1851,
      "tions": 1852,
      "crept": 1853,
      "aware": 1854,
      "story": 1855,
      "dragons": 1856,
      "Before": 1857,
      "shape": 1858,
      "remained": 1859,
      "north": 1860,
      "stead": 1861,
      "steep": 1862,
      "skin": 1863,
      "burglar": 1864,
      "hurried": 1865,
      "escaped": 1866,
      "Elrond": 1867,
      "gentle": 1868,
      "truth": 1869,
      "smell": 1870,
      "particular": 1871,
      "thousand": 1872,
      "Am": 1873,
      "Dr": 1874,
      "Lon": 1875,
      "Re": 1876,
      "Tom": 1877,
      "War": 1878,
      "Zambo": 1879,
      "ax": 1880,
      "echo": 1881,
      "gas": 1882,
      "gaz": 1883,
      "lin": 1884,
      "mut": 1885,
      "mad": 1886,
      "pho": 1887,
      "pushed": 1888,
      "squ": 1889,
      "sque": 1890,
      "tale": 1891,
      "var": 1892,
      "armed": 1893,
      "ided": 1894,
      "velo": 1895,
      "formed": 1896,
      "ool": 1897,
      "key": 1898,
      "loin": 1899,
      "sometimes": 1900,
      "doz": 1901,
      "play": 1902,
      "fires": 1903,
      "warm": 1904,
      "spite": 1905,
      "sprang": 1906,
      "trem": 1907,
      "merry": 1908,
      "lower": 1909,
      "discovered": 1910,
      "turning": 1911,
      "chest": 1912,
      "gling": 1913,
      "fles": 1914,
      "voices": 1915,
      "breed": 1916,
      "threw": 1917,
      "joy": 1918,
      "quickly": 1919,
      "walked": 1920,
      "curi": 1921,
      "yellow": 1922,
      "appearance": 1923,
      "Elven": 1924,
      "killed": 1925,
      "America": 1926,
      "power": 1927,
      "gloom": 1928,
      "Perhaps": 1929,
      "empty": 1930,
      "bottom": 1931,
      "length": 1932,
      "London": 1933,
      "Eag": 1934,
      "Gloin": 1935,
      "May": 1936,
      "Took": 1937,
      "cord": 1938,
      "ging": 1939,
      "listen": 1940,
      "main": 1941,
      "os": 1942,
      "pping": 1943,
      "rate": 1944,
      "sus": 1945,
      "sne": 1946,
      "south": 1947,
      "tail": 1948,
      "wished": 1949,
      "inking": 1950,
      "tori": 1951,
      "llent": 1952,
      "state": 1953,
      "memor": 1954,
      "become": 1955,
      "iding": 1956,
      "acter": 1957,
      "noti": 1958,
      "chang": 1959,
      "unless": 1960,
      "oolog": 1961,
      "ents": 1962,
      "amed": 1963,
      "pered": 1964,
      "dec": 1965,
      "delight": 1966,
      "death": 1967,
      "cking": 1968,
      "plans": 1969,
      "aps": 1970,
      "ously": 1971,
      "halls": 1972,
      "grand": 1973,
      "conv": 1974,
      "comple": 1975,
      "whom": 1976,
      "drink": 1977,
      "struck": 1978,
      "crow": 1979,
      "cient": 1980,
      "proceed": 1981,
      "cloud": 1982,
      "shoulder": 1983,
      "shoulders": 1984,
      "cture": 1985,
      "wenty": 1986,
      "hapter": 1987,
      "prise": 1988,
      "morrow": 1989,
      "actly": 1990,
      "actually": 1991,
      "courage": 1992,
      "service": 1993,
      "streng": 1994,
      "dress": 1995,
      "shore": 1996,
      "attack": 1997,
      "happy": 1998,
      "remem": 1999,
      "thinking": 2000,
      "fool": 2001,
      "cliffs": 2002,
      "burst": 2003,
      "hurry": 2004,
      "personal": 2005,
      "slope": 2006,
      "colle": 2007,
      "Forest": 2008,
      "pretty": 2009,
      "considerable": 2010,
      "Engl": 2011,
      "paper": 2012,
      "graph": 2013,
      "Elvenking": 2014,
      "Is": 2015,
      "Out": 2016,
      "aked": 2017,
      "blo": 2018,
      "dest": 2019,
      "hast": 2020,
      "ib": 2021,
      "kne": 2022,
      "mine": 2023,
      "nature": 2024,
      "port": 2025,
      "sou": 2026,
      "summer": 2027,
      "sense": 2028,
      "twenty": 2029,
      "wanted": 2030,
      "thes": 2031,
      "int": 2032,
      "ances": 2033,
      "erable": 2034,
      "itions": 2035,
      "lecture": 2036,
      "weary": 2037,
      "roof": 2038,
      "notic": 2039,
      "aled": 2040,
      "change": 2041,
      "living": 2042,
      "tired": 2043,
      "ooth": 2044,
      "host": 2045,
      "box": 2046,
      "feast": 2047,
      "arewell": 2048,
      "shook": 2049,
      "blood": 2050,
      "usted": 2051,
      "brain": 2052,
      "sugg": 2053,
      "whose": 2054,
      "--\"": 2055,
      "pres": 2056,
      "discus": 2057,
      "proper": 2058,
      "worse": 2059,
      "smile": 2060,
      "stores": 2061,
      "breath": 2062,
      "mighty": 2063,
      "surface": 2064,
      "broad": 2065,
      "broke": 2066,
      "company": 2067,
      "excellent": 2068,
      "difficul": 2069,
      "scram": 2070,
      "nearest": 2071,
      "pockets": 2072,
      "Goblin": 2073,
      "corner": 2074,
      "notice": 2075,
      "remembered": 2076,
      "Bof": 2077,
      "Dw": 2078,
      "Up": 2079,
      "ahead": 2080,
      "din": 2081,
      "ech": 2082,
      "gain": 2083,
      "hide": 2084,
      "jumped": 2085,
      "later": 2086,
      "mur": 2087,
      "nal": 2088,
      "pen": 2089,
      "pit": 2090,
      "send": 2091,
      "scre": 2092,
      "sket": 2093,
      "sides": 2094,
      "ug": 2095,
      "vast": 2096,
      "third": 2097,
      "ree": 2098,
      "ony": 2099,
      "asleep": 2100,
      "arri": 2101,
      "habit": 2102,
      "leather": 2103,
      "week": 2104,
      "ution": 2105,
      "motion": 2106,
      "onely": 2107,
      "dep": 2108,
      "umbling": 2109,
      "iff": 2110,
      "extra": 2111,
      "fied": 2112,
      "brush": 2113,
      "spent": 2114,
      "yourself": 2115,
      "managed": 2116,
      "thank": 2117,
      "lights": 2118,
      "akes": 2119,
      "perfect": 2120,
      "spec": 2121,
      "hungry": 2122,
      "Mountains": 2123,
      "singing": 2124,
      "tales": 2125,
      "falling": 2126,
      "surpris": 2127,
      "wrong": 2128,
      "hundreds": 2129,
      "interrup": 2130,
      "drawn": 2131,
      "showed": 2132,
      "character": 2133,
      "hours": 2134,
      "rising": 2135,
      "American": 2136,
      "number": 2137,
      "added": 2138,
      "excite": 2139,
      "azement": 2140,
      "fifty": 2141,
      "entrance": 2142,
      "Eagles": 2143,
      "crowd": 2144,
      "Bofur": 2145,
      "Dwalin": 2146,
      "Did": 2147,
      "Ge": 2148,
      "Or": 2149,
      "She": 2150,
      "cal": 2151,
      "dur": 2152,
      "daw": 2153,
      "dared": 2154,
      "east": 2155,
      "fa": 2156,
      "fted": 2157,
      "glow": 2158,
      "ie": 2159,
      "kes": 2160,
      "kno": 2161,
      "list": 2162,
      "ph": 2163,
      "rage": 2164,
      "sang": 2165,
      "tang": 2166,
      "lly": 2167,
      "stro": 2168,
      "stuff": 2169,
      "wear": 2170,
      "wealth": 2171,
      "wicked": 2172,
      "lives": 2173,
      "adv": 2174,
      "uncomfortable": 2175,
      "ries": 2176,
      "rich": 2177,
      "ently": 2178,
      "amazement": 2179,
      "plat": 2180,
      "indic": 2181,
      "anyone": 2182,
      "apping": 2183,
      "bye": 2184,
      "suc": 2185,
      "comrad": 2186,
      "afraid": 2187,
      "disappeared": 2188,
      "throw": 2189,
      "clam": 2190,
      "medi": 2191,
      "Indeed": 2192,
      "flat": 2193,
      "thoughts": 2194,
      "saying": 2195,
      "agged": 2196,
      "surprise": 2197,
      "pony": 2198,
      "scattered": 2199,
      "spot": 2200,
      "entirely": 2201,
      "comfort": 2202,
      "laughter": 2203,
      "vanished": 2204,
      "animals": 2205,
      "natur": 2206,
      "picked": 2207,
      "experience": 2208,
      "Wargs": 2209,
      "complete": 2210,
      "strength": 2211,
      "George": 2212,
      "comrades": 2213,
      "Any": 2214,
      "Bif": 2215,
      "Chapter": 2216,
      "Every": 2217,
      "Long": 2218,
      "Mis": 2219,
      "Oin": 2220,
      "Sure": 2221,
      "Un": 2222,
      "Wald": 2223,
      "Yet": 2224,
      "bat": 2225,
      "ere": 2226,
      "fit": 2227,
      "ian": 2228,
      "mess": 2229,
      "nice": 2230,
      "sum": 2231,
      "wound": 2232,
      "respect": 2233,
      "atten": 2234,
      "toes": 2235,
      "tograph": 2236,
      "weap": 2237,
      "hills": 2238,
      "veget": 2239,
      "nose": 2240,
      "allow": 2241,
      "sole": 2242,
      "saur": 2243,
      "note": 2244,
      "coat": 2245,
      "colo": 2246,
      "neither": 2247,
      "goes": 2248,
      "post": 2249,
      "content": 2250,
      "greater": 2251,
      "bitter": 2252,
      "mention": 2253,
      "knows": 2254,
      "knowledge": 2255,
      "watching": 2256,
      "wooden": 2257,
      "stor": 2258,
      "desire": 2259,
      "wondered": 2260,
      "everything": 2261,
      "clothes": 2262,
      "busy": 2263,
      "distant": 2264,
      "possess": 2265,
      "kenstone": 2266,
      "idden": 2267,
      "cries": 2268,
      "please": 2269,
      "kindly": 2270,
      "questions": 2271,
      "banks": 2272,
      "evidence": 2273,
      "whispered": 2274,
      "queer": 2275,
      "fresh": 2276,
      "leaving": 2277,
      "imagine": 2278,
      "Arkenstone": 2279,
      "catch": 2280,
      "pinn": 2281,
      "trunk": 2282,
      "monstrous": 2283,
      "glimp": 2284,
      "pterodactyl": 2285,
      "photograph": 2286,
      "changed": 2287,
      "excitement": 2288,
      "platform": 2289,
      "Bifur": 2290,
      "Waldron": 2291,
      "An": 2292,
      "Do": 2293,
      "ES": 2294,
      "Es": 2295,
      "LL": 2296,
      "Oh": 2297,
      "TER": 2298,
      "Wood": 2299,
      "bor": 2300,
      "bull": 2301,
      "bund": 2302,
      "fun": 2303,
      "faint": 2304,
      "game": 2305,
      "lu": 2306,
      "mus": 2307,
      "mies": 2308,
      "odon": 2309,
      "pu": 2310,
      "rush": 2311,
      "sand": 2312,
      "sof": 2313,
      "simp": 2314,
      "uation": 2315,
      "xed": 2316,
      "ths": 2317,
      "thir": 2318,
      "thunder": 2319,
      "ancient": 2320,
      "asm": 2321,
      "eding": 2322,
      "ench": 2323,
      "ences": 2324,
      "ists": 2325,
      "arrows": 2326,
      "beat": 2327,
      "ropes": 2328,
      "als": 2329,
      "aded": 2330,
      "terri": 2331,
      "caver": 2332,
      "deli": 2333,
      "cks": 2334,
      "umn": 2335,
      "shone": 2336,
      "lots": 2337,
      "ends": 2338,
      "expl": 2339,
      "common": 2340,
      "spread": 2341,
      "whatever": 2342,
      "craw": 2343,
      "crash": 2344,
      "woke": 2345,
      "aks": 2346,
      "prob": 2347,
      "afterwards": 2348,
      "glade": 2349,
      "aws": 2350,
      "smooth": 2351,
      "stop": 2352,
      "helped": 2353,
      "start": 2354,
      "child": 2355,
      "larger": 2356,
      "Only": 2357,
      "center": 2358,
      "pipe": 2359,
      "fourteen": 2360,
      "pleased": 2361,
      "import": 2362,
      "ublic": 2363,
      "natives": 2364,
      "Also": 2365,
      "companion": 2366,
      "dreams": 2367,
      "leading": 2368,
      "wandering": 2369,
      "beasts": 2370,
      "laughing": 2371,
      "inclined": 2372,
      "noticed": 2373,
      "pinnacle": 2374,
      "Mc": 2375,
      "Po": 2376,
      "PTER": 2377,
      "Whi": 2378,
      "bone": 2379,
      "bones": 2380,
      "cou": 2381,
      "cup": 2382,
      "cts": 2383,
      "dle": 2384,
      "event": 2385,
      "fan": 2386,
      "gather": 2387,
      "mn": 2388,
      "pan": 2389,
      "pair": 2390,
      "public": 2391,
      "rid": 2392,
      "sick": 2393,
      "shel": 2394,
      "tu": 2395,
      "vill": 2396,
      "win": 2397,
      "wis": 2398,
      "yer": 2399,
      "stiff": 2400,
      "beards": 2401,
      "weight": 2402,
      "waste": 2403,
      "search": 2404,
      "hion": 2405,
      "aced": 2406,
      "nois": 2407,
      "uts": 2408,
      "ties": 2409,
      "sage": 2410,
      "oot": 2411,
      "holes": 2412,
      "aming": 2413,
      "boy": 2414,
      "oney": 2415,
      "usual": 2416,
      "ument": 2417,
      "aren": 2418,
      "ific": 2419,
      "apid": 2420,
      "exha": 2421,
      "vens": 2422,
      "comm": 2423,
      "spark": 2424,
      "horror": 2425,
      "thrust": 2426,
      "handed": 2427,
      "waters": 2428,
      "ddy": 2429,
      "desper": 2430,
      "result": 2431,
      "pointing": 2432,
      "azon": 2433,
      "situation": 2434,
      "torch": 2435,
      "astern": 2436,
      "possib": 2437,
      "Thror": 2438,
      "Thrain": 2439,
      "flew": 2440,
      "minutes": 2441,
      "climbing": 2442,
      "evident": 2443,
      "occur": 2444,
      "carefully": 2445,
      "easily": 2446,
      "passages": 2447,
      "barrel": 2448,
      "crossed": 2449,
      "sorry": 2450,
      "frightened": 2451,
      "remarkable": 2452,
      "Ardle": 2453,
      "leaped": 2454,
      "described": 2455,
      "pursu": 2456,
      "trunks": 2457,
      "subject": 2458,
      "teeth": 2459,
      "continu": 2460,
      "CHAPTER": 2461,
      "devil": 2462,
      "absolutely": 2463,
      "ceived": 2464,
      "Amazon": 2465,
      "various": 2466,
      "extraordinary": 2467,
      "perfectly": 2468,
      "surprised": 2469,
      "during": 2470,
      "dawn": 2471,
      "listened": 2472,
      "solemn": 2473,
      "colored": 2474,
      "simply": 2475,
      "McArdle": 2476,
      "!'": 2477,
      "Land": 2478,
      "ON": 2479,
      "bs": 2480,
      "bers": 2481,
      "cast": 2482,
      "dar": 2483,
      "eks": 2484,
      "fas": 2485,
      "fut": 2486,
      "fled": 2487,
      "hidden": 2488,
      "job": 2489,
      "mile": 2490,
      "pain": 2491,
      "ption": 2492,
      "ral": 2493,
      "rab": 2494,
      "rative": 2495,
      "rapid": 2496,
      "tling": 2497,
      "uan": 2498,
      "ude": 2499,
      "vic": 2500,
      "vish": 2501,
      "thus": 2502,
      "inv": 2503,
      "ination": 2504,
      "anger": 2505,
      "resp": 2506,
      "orous": 2507,
      "around": 2508,
      "arrow": 2509,
      "ested": 2510,
      "iting": 2511,
      "hip": 2512,
      "altogether": 2513,
      "hissed": 2514,
      "liz": 2515,
      "ford": 2516,
      "unexpected": 2517,
      "ags": 2518,
      "ilt": 2519,
      "abbed": 2520,
      "posed": 2521,
      "gress": 2522,
      "endous": 2523,
      "exist": 2524,
      "quar": 2525,
      "spur": 2526,
      "immedi": 2527,
      "els": 2528,
      "lightning": 2529,
      "produ": 2530,
      "class": 2531,
      "died": 2532,
      "viol": 2533,
      "shallow": 2534,
      "waving": 2535,
      "calling": 2536,
      "higher": 2537,
      "trying": 2538,
      "mission": 2539,
      "miserable": 2540,
      "smaller": 2541,
      "rent": 2542,
      "Once": 2543,
      "enemies": 2544,
      "eagles": 2545,
      "signs": 2546,
      "conditions": 2547,
      "walk": 2548,
      "walking": 2549,
      "culiar": 2550,
      "report": 2551,
      "narrative": 2552,
      "quietly": 2553,
      "free": 2554,
      "imagined": 2555,
      "swept": 2556,
      "guns": 2557,
      "built": 2558,
      "touch": 2559,
      "piece": 2560,
      "travel": 2561,
      "pulled": 2562,
      "memory": 2563,
      "presence": 2564,
      "sketch": 2565,
      "specim": 2566,
      "Misty": 2567,
      "Surely": 2568,
      "fashion": 2569,
      "rabbit": 2570,
      "Cur": 2571,
      "EN": 2572,
      "OU": 2573,
      "Old": 2574,
      "Pre": 2575,
      "St": 2576,
      "Zoolog": 2577,
      "bac": 2578,
      "ball": 2579,
      "bri": 2580,
      "fly": 2581,
      "fail": 2582,
      "fav": 2583,
      "gates": 2584,
      "la": 2585,
      "lord": 2586,
      "ming": 2587,
      "mass": 2588,
      "mist": 2589,
      "osaur": 2590,
      "pine": 2591,
      "sim": 2592,
      "sens": 2593,
      "tly": 2594,
      "tong": 2595,
      "test": 2596,
      "wing": 2597,
      "year": 2598,
      "inion": 2599,
      "hesit": 2600,
      "inging": 2601,
      "arg": 2602,
      "argu": 2603,
      "haven": 2604,
      "stir": 2605,
      "merely": 2606,
      "wet": 2607,
      "seized": 2608,
      "roll": 2609,
      "acc": 2610,
      "noon": 2611,
      "vering": 2612,
      "forget": 2613,
      "advan": 2614,
      "address": 2615,
      "rifles": 2616,
      "ooking": 2617,
      "cell": 2618,
      "hoard": 2619,
      "usion": 2620,
      "peculiar": 2621,
      "thern": 2622,
      "def": 2623,
      "pol": 2624,
      "blind": 2625,
      "somewhere": 2626,
      "exam": 2627,
      "trid": 2628,
      "canoes": 2629,
      "horse": 2630,
      "yours": 2631,
      "manner": 2632,
      "prep": 2633,
      "opinion": 2634,
      "crown": 2635,
      "cial": 2636,
      "creep": 2637,
      "iguan": 2638,
      "glass": 2639,
      "spears": 2640,
      "Nothing": 2641,
      "cartrid": 2642,
      "hearts": 2643,
      "rocky": 2644,
      "shaking": 2645,
      "effor": 2646,
      "paths": 2647,
      "clearing": 2648,
      "sounded": 2649,
      "waited": 2650,
      "fairly": 2651,
      "drawing": 2652,
      "growing": 2653,
      "risk": 2654,
      "flowers": 2655,
      "volcan": 2656,
      "Goblins": 2657,
      "color": 2658,
      "welve": 2659,
      "tempt": 2660,
      "twice": 2661,
      "dozen": 2662,
      "brushwood": 2663,
      "weapons": 2664,
      "occurred": 2665,
      "future": 2666,
      "iguanodon": 2667,
      "AR": 2668,
      "Br": 2669,
      "Com": 2670,
      "De": 2671,
      "Had": 2672,
      "Look": 2673,
      "Never": 2674,
      "Nature": 2675,
      "Nori": 2676,
      "Oak": 2677,
      "Running": 2678,
      "bas": 2679,
      "bent": 2680,
      "bam": 2681,
      "eight": 2682,
      "emer": 2683,
      "eastern": 2684,
      "ith": 2685,
      "ial": 2686,
      "jud": 2687,
      "kick": 2688,
      "lted": 2689,
      "prof": 2690,
      "puff": 2691,
      "raf": 2692,
      "sen": 2693,
      "snow": 2694,
      "scar": 2695,
      "vain": 2696,
      "wits": 2697,
      "ines": 2698,
      "anx": 2699,
      "anno": 2700,
      "repe": 2701,
      "oned": 2702,
      "asse": 2703,
      "iss": 2704,
      "itude": 2705,
      "stumbled": 2706,
      "wels": 2707,
      "rolling": 2708,
      "acket": 2709,
      "histori": 2710,
      "unt": 2711,
      "agger": 2712,
      "agree": 2713,
      "cep": 2714,
      "hoped": 2715,
      "cop": 2716,
      "ters": 2717,
      "terror": 2718,
      "peace": 2719,
      "gollum": 2720,
      "absur": 2721,
      "shine": 2722,
      "lose": 2723,
      "ender": 2724,
      "ext": 2725,
      "explan": 2726,
      "trud": 2727,
      "temp": 2728,
      "warri": 2729,
      "brows": 2730,
      "space": 2731,
      "----\"": 2732,
      "impress": 2733,
      "aught": 2734,
      "cious": 2735,
      "thrush": 2736,
      "prote": 2737,
      "didn": 2738,
      "engers": 2739,
      "worst": 2740,
      "watched": 2741,
      "dded": 2742,
      "guage": 2743,
      "flames": 2744,
      "useful": 2745,
      "rings": 2746,
      "super": 2747,
      "points": 2748,
      "tical": 2749,
      "stretched": 2750,
      "bush": 2751,
      "march": 2752,
      "dancing": 2753,
      "settled": 2754,
      "satis": 2755,
      "torn": 2756,
      "iously": 2757,
      "distur": 2758,
      "message": 2759,
      "jewels": 2760,
      "exceeding": 2761,
      "stepped": 2762,
      "evil": 2763,
      "eaten": 2764,
      "Wild": 2765,
      "realized": 2766,
      "slopes": 2767,
      "boats": 2768,
      "Already": 2769,
      "Such": 2770,
      "numbers": 2771,
      "carrying": 2772,
      "driven": 2773,
      "twink": 2774,
      "excited": 2775,
      "observed": 2776,
      "swiftly": 2777,
      "language": 2778,
      "eze": 2779,
      "grandfather": 2780,
      "English": 2781,
      "summit": 2782,
      "attention": 2783,
      "photographs": 2784,
      "important": 2785,
      "Poor": 2786,
      "Zoological": 2787,
      "argument": 2788,
      "prepared": 2789,
      "volcanic": 2790,
      "bamboo": 2791,
      "absurd": 2792,
      "Car": 2793,
      "Dur": 2794,
      "Get": 2795,
      "Last": 2796,
      "Other": 2797,
      "Two": 2798,
      "Was": 2799,
      "cil": 2800,
      "dense": 2801,
      "fate": 2802,
      "fring": 2803,
      "glo": 2804,
      "harp": 2805,
      "ired": 2806,
      "ker": 2807,
      "lat": 2808,
      "mal": 2809,
      "mail": 2810,
      "nin": 2811,
      "names": 2812,
      "pay": 2813,
      "pool": 2814,
      "rs": 2815,
      "rat": 2816,
      "ride": 2817,
      "sle": 2818,
      "sack": 2819,
      "sank": 2820,
      "swords": 2821,
      "sending": 2822,
      "twelve": 2823,
      "vag": 2824,
      "wre": 2825,
      "wake": 2826,
      "wine": 2827,
      "thy": 2828,
      "intell": 2829,
      "aning": 2830,
      "returned": 2831,
      "refle": 2832,
      "represent": 2833,
      "erous": 2834,
      "hest": 2835,
      "aside": 2836,
      "ities": 2837,
      "level": 2838,
      "sty": 2839,
      "stit": 2840,
      "stony": 2841,
      "meat": 2842,
      "hield": 2843,
      "rode": 2844,
      "roast": 2845,
      "although": 2846,
      "vers": 2847,
      "lied": 2848,
      "lifted": 2849,
      "tied": 2850,
      "tight": 2851,
      "sav": 2852,
      "enty": 2853,
      "upwards": 2854,
      "hollow": 2855,
      "amped": 2856,
      "moder": 2857,
      "tern": 2858,
      "gems": 2859,
      "butter": 2860,
      "umb": 2861,
      "vesti": 2862,
      "ples": 2863,
      "placed": 2864,
      "anywhere": 2865,
      "trap": 2866,
      "gray": 2867,
      "brown": 2868,
      "backs": 2869,
      "tained": 2870,
      "loose": 2871,
      "oping": 2872,
      "ause": 2873,
      "proved": 2874,
      "worn": 2875,
      "guide": 2876,
      "flung": 2877,
      "begun": 2878,
      "speaking": 2879,
      "vious": 2880,
      "talked": 2881,
      "shores": 2882,
      "steam": 2883,
      "ruddy": 2884,
      "write": 2885,
      "clearly": 2886,
      "joined": 2887,
      "giant": 2888,
      "central": 2889,
      "following": 2890,
      "gged": 2891,
      "enshield": 2892,
      "keeping": 2893,
      "minute": 2894,
      "meanwhile": 2895,
      "directions": 2896,
      "visit": 2897,
      "armour": 2898,
      "returning": 2899,
      "bowed": 2900,
      "whisper": 2901,
      "swamp": 2902,
      "circl": 2903,
      "realize": 2904,
      "finite": 2905,
      "flowed": 2906,
      "raised": 2907,
      "letters": 2908,
      "experiences": 2909,
      "touched": 2910,
      "regard": 2911,
      "bbing": 2912,
      "honor": 2913,
      "burning": 2914,
      "remains": 2915,
      "strugg": 2916,
      "ING": 2917,
      "incident": 2918,
      "portion": 2919,
      "tremendous": 2920,
      "proceedings": 2921,
      "knees": 2922,
      "difficulty": 2923,
      "scrambled": 2924,
      "success": 2925,
      "Under": 2926,
      "vegetation": 2927,
      "exhausted": 2928,
      "continued": 2929,
      "Oakenshield": 2930,
      "Carrock": 2931,
      ",'": 2932,
      "AN": 2933,
      "Down": 2934,
      "Eu": 2935,
      "Lo": 2936,
      "Lonely": 2937,
      "Man": 2938,
      "OF": 2939,
      "Ori": 2940,
      "Pro": 2941,
      "Sh": 2942,
      "Stre": 2943,
      "Te": 2944,
      "bing": 2945,
      "bay": 2946,
      "bough": 2947,
      "cro": 2948,
      "dwell": 2949,
      "ec": 2950,
      "farewell": 2951,
      "gn": 2952,
      "gard": 2953,
      "gest": 2954,
      "ia": 2955,
      "jung": 2956,
      "ky": 2957,
      "lab": 2958,
      "lair": 2959,
      "mood": 2960,
      "mmer": 2961,
      "makes": 2962,
      "phe": 2963,
      "pill": 2964,
      "professor": 2965,
      "rum": 2966,
      "sad": 2967,
      "sca": 2968,
      "tch": 2969,
      "tons": 2970,
      "thread": 2971,
      "received": 2972,
      "onwards": 2973,
      "ening": 2974,
      "envelo": 2975,
      "arched": 2976,
      "itable": 2977,
      "haul": 2978,
      "halt": 2979,
      "belong": 2980,
      "belt": 2981,
      "weak": 2982,
      "ids": 2983,
      "acing": 2984,
      "aloud": 2985,
      "chuck": 2986,
      "limit": 2987,
      "unable": 2988,
      "agreed": 2989,
      "bore": 2990,
      "bother": 2991,
      "usually": 2992,
      "nel": 2993,
      "necess": 2994,
      "neigh": 2995,
      "definite": 2996,
      "aste": 2997,
      "couldn": 2998,
      "dom": 2999
    },
    "merges": [
      [
        "t",
        "h"
      ],
      [
        "th",
        "e"
      ],
      [
        "i",
        "n"
      ],
      [
        "a",
        "n"
      ],
      [
        "r",
        "e"
      ],
      [
        "o",
        "u"
      ],
      [
        "an",
        "d"
      ],
      [
        "o",
        "n"
      ],
      [
        "e",
        "r"
      ],
      [
        "a",
        "t"
      ],
      [
        "h",
        "e"
      ],
      [
        "a",
        "s"
      ],
      [
        "e",
        "d"
      ],
      [
        "e",
        "n"
      ],
      [
        "o",
        "f"
      ],
      [
        "t",
        "o"
      ],
      [
        "in",
        "g"
      ],
      [
        "o",
        "r"
      ],
      [
        "l",
        "l"
      ],
      [
        "i",
        "s"
      ],
      [
        "a",
        "r"
      ],
      [
        "e",
        "s"
      ],
      [
        "i",
        "t"
      ],
      [
        "h",
        "a"
      ],
      [
        "l",
        "e"
      ],
      [
        "s",
        "t"
      ],
      [
        "m",
        "e"
      ],
      [
        "b",
        "e"
      ],
      [
        "o",
        "w"
      ],
      [
        "w",
        "e"
      ],
      [
        "w",
        "as"
      ],
      [
        "s",
        "e"
      ],
      [
        "i",
        "d"
      ],
      [
        "l",
        "d"
      ],
      [
        "h",
        "i"
      ],
      [
        "r",
        "o"
      ],
      [
        "v",
        "e"
      ],
      [
        "g",
        "h"
      ],
      [
        "w",
        "i"
      ],
      [
        "a",
        "c"
      ],
      [
        "th",
        "at"
      ],
      [
        "n",
        "o"
      ],
      [
        "l",
        "y"
      ],
      [
        "a",
        "l"
      ],
      [
        "c",
        "h"
      ],
      [
        "a",
        "ll"
      ],
      [
        "v",
        "er"
      ],
      [
        "y",
        "ou"
      ],
      [
        "h",
        "is"
      ],
      [
        "ha",
        "d"
      ],
      [
        "u",
        "t"
      ],
      [
        "l",
        "i"
      ],
      [
        "i",
        "r"
      ],
      [
        "a",
        "y"
      ],
      [
        "T",
        "he"
      ],
      [
        "f",
        "or"
      ],
      [
        "a",
        "d"
      ],
      [
        "u",
        "n"
      ],
      [
        "r",
        "i"
      ],
      [
        "gh",
        "t"
      ],
      [
        "wi",
        "th"
      ],
      [
        "ou",
        "ld"
      ],
      [
        "s",
        "o"
      ],
      [
        "t",
        "i"
      ],
      [
        "s",
        "a"
      ],
      [
        "o",
        "o"
      ],
      [
        "the",
        "y"
      ],
      [
        "en",
        "t"
      ],
      [
        "u",
        "p"
      ],
      [
        "k",
        "e"
      ],
      [
        "a",
        "g"
      ],
      [
        "c",
        "e"
      ],
      [
        "h",
        "o"
      ],
      [
        "we",
        "re"
      ],
      [
        "ou",
        "t"
      ],
      [
        "ou",
        "n"
      ],
      [
        "no",
        "t"
      ],
      [
        "u",
        "r"
      ],
      [
        "c",
        "o"
      ],
      [
        "ou",
        "r"
      ],
      [
        "a",
        "m"
      ],
      [
        "a",
        "in"
      ],
      [
        "b",
        "o"
      ],
      [
        "m",
        "o"
      ],
      [
        "on",
        "e"
      ],
      [
        "u",
        "s"
      ],
      [
        "i",
        "l"
      ],
      [
        "w",
        "hi"
      ],
      [
        "n",
        "e"
      ],
      [
        "t",
        "er"
      ],
      [
        "p",
        "e"
      ],
      [
        "f",
        "e"
      ],
      [
        "re",
        "d"
      ],
      [
        "g",
        "e"
      ],
      [
        "ha",
        "ve"
      ],
      [
        "ar",
        "d"
      ],
      [
        "g",
        "o"
      ],
      [
        "sa",
        "id"
      ],
      [
        "c",
        "a"
      ],
      [
        "the",
        "r"
      ],
      [
        "a",
        "b"
      ],
      [
        "m",
        "y"
      ],
      [
        "on",
        "g"
      ],
      [
        "the",
        "m"
      ],
      [
        "whi",
        "ch"
      ],
      [
        "ro",
        "m"
      ],
      [
        "b",
        "ut"
      ],
      [
        "h",
        "at"
      ],
      [
        "d",
        "e"
      ],
      [
        "es",
        "s"
      ],
      [
        "hi",
        "m"
      ],
      [
        "ow",
        "n"
      ],
      [
        "c",
        "k"
      ],
      [
        "u",
        "m"
      ],
      [
        "a",
        "re"
      ],
      [
        "as",
        "t"
      ],
      [
        "f",
        "rom"
      ],
      [
        "the",
        "ir"
      ],
      [
        "f",
        "o"
      ],
      [
        "v",
        "es"
      ],
      [
        "w",
        "he"
      ],
      [
        "s",
        "h"
      ],
      [
        "l",
        "o"
      ],
      [
        "p",
        "o"
      ],
      [
        "i",
        "on"
      ],
      [
        "ac",
        "k"
      ],
      [
        "c",
        "ould"
      ],
      [
        "i",
        "f"
      ],
      [
        "oun",
        "d"
      ],
      [
        "b",
        "l"
      ],
      [
        "oo",
        "d"
      ],
      [
        "so",
        "me"
      ],
      [
        "the",
        "re"
      ],
      [
        "d",
        "o"
      ],
      [
        "p",
        "l"
      ],
      [
        "in",
        "d"
      ],
      [
        "H",
        "e"
      ],
      [
        "u",
        "re"
      ],
      [
        "w",
        "ay"
      ],
      [
        "an",
        "y"
      ],
      [
        "n",
        "ow"
      ],
      [
        "g",
        "re"
      ],
      [
        "a",
        "p"
      ],
      [
        "en",
        "d"
      ],
      [
        "e",
        "x"
      ],
      [
        "I",
        "t"
      ],
      [
        "th",
        "ing"
      ],
      [
        "e",
        "t"
      ],
      [
        "B",
        "il"
      ],
      [
        "Bil",
        "bo"
      ],
      [
        "b",
        "y"
      ],
      [
        "f",
        "i"
      ],
      [
        "ou",
        "s"
      ],
      [
        "ver",
        "y"
      ],
      [
        "th",
        "is"
      ],
      [
        "fo",
        "re"
      ],
      [
        "t",
        "r"
      ],
      [
        "!",
        "”"
      ],
      [
        "se",
        "e"
      ],
      [
        "ou",
        "gh"
      ],
      [
        "u",
        "l"
      ],
      [
        "u",
        "st"
      ],
      [
        "id",
        "e"
      ],
      [
        "i",
        "ght"
      ],
      [
        "q",
        "u"
      ],
      [
        "w",
        "ould"
      ],
      [
        "t",
        "e"
      ],
      [
        "d",
        "own"
      ],
      [
        "t",
        "ed"
      ],
      [
        "k",
        "ing"
      ],
      [
        "v",
        "en"
      ],
      [
        "up",
        "on"
      ],
      [
        "ha",
        "ll"
      ],
      [
        "w",
        "ar"
      ],
      [
        "g",
        "r"
      ],
      [
        "d",
        "er"
      ],
      [
        "c",
        "an"
      ],
      [
        "b",
        "r"
      ],
      [
        "i",
        "ll"
      ],
      [
        "s",
        "u"
      ],
      [
        "in",
        "to"
      ],
      [
        "be",
        "en"
      ],
      [
        "he",
        "d"
      ],
      [
        ".",
        "\""
      ],
      [
        "li",
        "ke"
      ],
      [
        "mo",
        "re"
      ],
      [
        "s",
        "s"
      ],
      [
        "at",
        "e"
      ],
      [
        "or",
        "d"
      ],
      [
        "p",
        "ed"
      ],
      [
        "a",
        "ke"
      ],
      [
        "k",
        "ed"
      ],
      [
        "g",
        "er"
      ],
      [
        "c",
        "on"
      ],
      [
        "wi",
        "ll"
      ],
      [
        "to",
        "o"
      ],
      [
        "co",
        "m"
      ],
      [
        "s",
        "p"
      ],
      [
        "l",
        "f"
      ],
      [
        "b",
        "ack"
      ],
      [
        "e",
        "p"
      ],
      [
        "w",
        "hat"
      ],
      [
        "w",
        "ho"
      ],
      [
        "-",
        "-"
      ],
      [
        "t",
        "ain"
      ],
      [
        "whe",
        "n"
      ],
      [
        "l",
        "ong"
      ],
      [
        "t",
        "re"
      ],
      [
        "in",
        "s"
      ],
      [
        "ca",
        "me"
      ],
      [
        "W",
        "e"
      ],
      [
        "i",
        "m"
      ],
      [
        "h",
        "or"
      ],
      [
        "gre",
        "at"
      ],
      [
        "l",
        "oo"
      ],
      [
        "you",
        "r"
      ],
      [
        "o",
        "ther"
      ],
      [
        "er",
        "s"
      ],
      [
        "ac",
        "e"
      ],
      [
        "i",
        "c"
      ],
      [
        "t",
        "s"
      ],
      [
        ",",
        "”"
      ],
      [
        "ti",
        "on"
      ],
      [
        "m",
        "an"
      ],
      [
        "a",
        "f"
      ],
      [
        "e",
        "l"
      ],
      [
        "be",
        "fore"
      ],
      [
        "p",
        "re"
      ],
      [
        "ti",
        "me"
      ],
      [
        "o",
        "p"
      ],
      [
        "B",
        "ut"
      ],
      [
        "ar",
        "k"
      ],
      [
        "o",
        "ver"
      ],
      [
        "it",
        "t"
      ],
      [
        "d",
        "war"
      ],
      [
        "d",
        "r"
      ],
      [
        "m",
        "er"
      ],
      [
        "n",
        "d"
      ],
      [
        "a",
        "u"
      ],
      [
        "st",
        "r"
      ],
      [
        "ou",
        "ght"
      ],
      [
        "it",
        "e"
      ],
      [
        ".",
        "”"
      ],
      [
        "d",
        "ay"
      ],
      [
        "l",
        "ow"
      ],
      [
        "ag",
        "ain"
      ],
      [
        "co",
        "me"
      ],
      [
        "c",
        "r"
      ],
      [
        "an",
        "t"
      ],
      [
        "The",
        "y"
      ],
      [
        "e",
        "y"
      ],
      [
        "ur",
        "n"
      ],
      [
        "ab",
        "out"
      ],
      [
        "b",
        "le"
      ],
      [
        "c",
        "i"
      ],
      [
        "b",
        "it"
      ],
      [
        "ab",
        "le"
      ],
      [
        "ge",
        "t"
      ],
      [
        "w",
        "o"
      ],
      [
        "m",
        "ent"
      ],
      [
        "d",
        "is"
      ],
      [
        "th",
        "an"
      ],
      [
        "at",
        "ion"
      ],
      [
        ",",
        "\""
      ],
      [
        "li",
        "ght"
      ],
      [
        "e",
        "ver"
      ],
      [
        "on",
        "ly"
      ],
      [
        "es",
        "t"
      ],
      [
        "th",
        "r"
      ],
      [
        "The",
        "re"
      ],
      [
        "dwar",
        "ves"
      ],
      [
        "a",
        "k"
      ],
      [
        "p",
        "er"
      ],
      [
        "w",
        "ard"
      ],
      [
        "ad",
        "e"
      ],
      [
        "oun",
        "tain"
      ],
      [
        "p",
        "ro"
      ],
      [
        "all",
        "y"
      ],
      [
        "c",
        "l"
      ],
      [
        "as",
        "s"
      ],
      [
        "t",
        "urn"
      ],
      [
        "se",
        "lf"
      ],
      [
        "h",
        "and"
      ],
      [
        "in",
        "k"
      ],
      [
        "m",
        "en"
      ],
      [
        "sh",
        "ould"
      ],
      [
        "itt",
        "le"
      ],
      [
        "c",
        "t"
      ],
      [
        "c",
        "re"
      ],
      [
        "g",
        "ood"
      ],
      [
        "l",
        "ittle"
      ],
      [
        "S",
        "o"
      ],
      [
        "i",
        "ve"
      ],
      [
        "whe",
        "re"
      ],
      [
        "l",
        "ed"
      ],
      [
        "l",
        "ast"
      ],
      [
        "it",
        "s"
      ],
      [
        "T",
        "hor"
      ],
      [
        "d",
        "id"
      ],
      [
        "Thor",
        "in"
      ],
      [
        "m",
        "ed"
      ],
      [
        "of",
        "f"
      ],
      [
        "un",
        "der"
      ],
      [
        "af",
        "ter"
      ],
      [
        "i",
        "ck"
      ],
      [
        "t",
        "y"
      ],
      [
        "en",
        "ger"
      ],
      [
        "st",
        "ill"
      ],
      [
        "re",
        "ad"
      ],
      [
        "e",
        "ven"
      ],
      [
        "f",
        "ar"
      ],
      [
        "an",
        "ce"
      ],
      [
        "he",
        "ad"
      ],
      [
        "a",
        "th"
      ],
      [
        "w",
        "or"
      ],
      [
        "i",
        "g"
      ],
      [
        "p",
        "ar"
      ],
      [
        "the",
        "n"
      ],
      [
        "m",
        "b"
      ],
      [
        "mo",
        "st"
      ],
      [
        "k",
        "now"
      ],
      [
        "n",
        "ing"
      ],
      [
        "Y",
        "ou"
      ],
      [
        "en",
        "ce"
      ],
      [
        "C",
        "hall"
      ],
      [
        "c",
        "he"
      ],
      [
        "d",
        "ark"
      ],
      [
        "ri",
        "ed"
      ],
      [
        "go",
        "t"
      ],
      [
        "Chall",
        "enger"
      ],
      [
        "w",
        "at"
      ],
      [
        "r",
        "of"
      ],
      [
        "an",
        "s"
      ],
      [
        "I",
        "n"
      ],
      [
        "?",
        "\""
      ],
      [
        "m",
        "ade"
      ],
      [
        "t",
        "ing"
      ],
      [
        "d",
        "d"
      ],
      [
        "g",
        "l"
      ],
      [
        "r",
        "ound"
      ],
      [
        "in",
        "e"
      ],
      [
        "g",
        "u"
      ],
      [
        "w",
        "ent"
      ],
      [
        "a",
        "w"
      ],
      [
        "h",
        "ow"
      ],
      [
        "ri",
        "ght"
      ],
      [
        "A",
        "nd"
      ],
      [
        "v",
        "ed"
      ],
      [
        "rof",
        "ess"
      ],
      [
        "The",
        "n"
      ],
      [
        "thr",
        "ough"
      ],
      [
        "s",
        "ide"
      ],
      [
        "u",
        "ll"
      ],
      [
        "he",
        "re"
      ],
      [
        "a",
        "ve"
      ],
      [
        "m",
        "ay"
      ],
      [
        "we",
        "ll"
      ],
      [
        "f",
        "l"
      ],
      [
        "th",
        "ought"
      ],
      [
        "s",
        "ay"
      ],
      [
        "r",
        "y"
      ],
      [
        "rofess",
        "or"
      ],
      [
        "whi",
        "le"
      ],
      [
        "is",
        "h"
      ],
      [
        "m",
        "ust"
      ],
      [
        "a",
        "ir"
      ],
      [
        "a",
        "way"
      ],
      [
        "f",
        "ul"
      ],
      [
        "w",
        "ood"
      ],
      [
        "al",
        "f"
      ],
      [
        "fe",
        "ll"
      ],
      [
        "d",
        "on"
      ],
      [
        "be",
        "g"
      ],
      [
        "W",
        "hat"
      ],
      [
        "ha",
        "p"
      ],
      [
        "P",
        "rofessor"
      ],
      [
        "f",
        "t"
      ],
      [
        "l",
        "ess"
      ],
      [
        "s",
        "pe"
      ],
      [
        "or",
        "t"
      ],
      [
        "G",
        "and"
      ],
      [
        "h",
        "as"
      ],
      [
        "s",
        "m"
      ],
      [
        "ag",
        "e"
      ],
      [
        "Gand",
        "alf"
      ],
      [
        "go",
        "bl"
      ],
      [
        "d",
        "i"
      ],
      [
        "m",
        "u"
      ],
      [
        "n",
        "ight"
      ],
      [
        "N",
        "o"
      ],
      [
        "an",
        "g"
      ],
      [
        "um",
        "mer"
      ],
      [
        "ir",
        "st"
      ],
      [
        "do",
        "or"
      ],
      [
        "en",
        "ed"
      ],
      [
        "b",
        "bit"
      ],
      [
        "ne",
        "ver"
      ],
      [
        "?",
        "”"
      ],
      [
        "e",
        "ar"
      ],
      [
        "ne",
        "w"
      ],
      [
        "ac",
        "h"
      ],
      [
        "m",
        "any"
      ],
      [
        "t",
        "wo"
      ],
      [
        "s",
        "to"
      ],
      [
        "v",
        "o"
      ],
      [
        "L",
        "ord"
      ],
      [
        "o",
        "ld"
      ],
      [
        "v",
        "i"
      ],
      [
        "th",
        "ink"
      ],
      [
        "ho",
        "bbit"
      ],
      [
        "f",
        "ound"
      ],
      [
        "h",
        "un"
      ],
      [
        "p",
        "t"
      ],
      [
        "at",
        "ure"
      ],
      [
        "le",
        "e"
      ],
      [
        "ey",
        "es"
      ],
      [
        "mu",
        "ch"
      ],
      [
        "c",
        "le"
      ],
      [
        "h",
        "ind"
      ],
      [
        "j",
        "ust"
      ],
      [
        "u",
        "e"
      ],
      [
        "su",
        "ch"
      ],
      [
        "f",
        "irst"
      ],
      [
        "ward",
        "s"
      ],
      [
        "u",
        "se"
      ],
      [
        "dd",
        "en"
      ],
      [
        "a",
        "ther"
      ],
      [
        "c",
        "ar"
      ],
      [
        "d",
        "es"
      ],
      [
        "w",
        "on"
      ],
      [
        "w",
        "ord"
      ],
      [
        "re",
        "s"
      ],
      [
        "the",
        "se"
      ],
      [
        "S",
        "ummer"
      ],
      [
        "th",
        "ough"
      ],
      [
        "v",
        "ing"
      ],
      [
        "Summer",
        "lee"
      ],
      [
        "r",
        "ing"
      ],
      [
        "b",
        "re"
      ],
      [
        "G",
        "o"
      ],
      [
        "c",
        "oun"
      ],
      [
        "sa",
        "w"
      ],
      [
        "p",
        "r"
      ],
      [
        "t",
        "en"
      ],
      [
        "m",
        "s"
      ],
      [
        "be",
        "t"
      ],
      [
        "T",
        "hat"
      ],
      [
        "m",
        "or"
      ],
      [
        "M",
        "ountain"
      ],
      [
        "c",
        "li"
      ],
      [
        "ag",
        "on"
      ],
      [
        "he",
        "ar"
      ],
      [
        "be",
        "hind"
      ],
      [
        "ag",
        "g"
      ],
      [
        "ro",
        "ck"
      ],
      [
        "ac",
        "t"
      ],
      [
        "a",
        "red"
      ],
      [
        "ow",
        "s"
      ],
      [
        "tre",
        "es"
      ],
      [
        "f",
        "ri"
      ],
      [
        "m",
        "ight"
      ],
      [
        "he",
        "ard"
      ],
      [
        "gobl",
        "ins"
      ],
      [
        "i",
        "es"
      ],
      [
        "J",
        "o"
      ],
      [
        "s",
        "hall"
      ],
      [
        "see",
        "med"
      ],
      [
        "loo",
        "ked"
      ],
      [
        "!",
        "\""
      ],
      [
        "wat",
        "er"
      ],
      [
        "fri",
        "end"
      ],
      [
        "f",
        "ind"
      ],
      [
        "am",
        "p"
      ],
      [
        "e",
        "very"
      ],
      [
        "l",
        "and"
      ],
      [
        "r",
        "on"
      ],
      [
        "w",
        "a"
      ],
      [
        "c",
        "our"
      ],
      [
        "c",
        "lo"
      ],
      [
        "f",
        "f"
      ],
      [
        "he",
        "l"
      ],
      [
        "ro",
        "ss"
      ],
      [
        "h",
        "n"
      ],
      [
        "le",
        "ft"
      ],
      [
        "l",
        "es"
      ],
      [
        "s",
        "ing"
      ],
      [
        "at",
        "ed"
      ],
      [
        "Jo",
        "hn"
      ],
      [
        "a",
        "bo"
      ],
      [
        "v",
        "ent"
      ],
      [
        "pl",
        "ace"
      ],
      [
        "s",
        "up"
      ],
      [
        "so",
        "on"
      ],
      [
        "po",
        "in"
      ],
      [
        "it",
        "y"
      ],
      [
        "y",
        "et"
      ],
      [
        "ti",
        "l"
      ],
      [
        "am",
        "ong"
      ],
      [
        "p",
        "ped"
      ],
      [
        "a",
        "z"
      ],
      [
        "p",
        "le"
      ],
      [
        "ll",
        "ow"
      ],
      [
        "no",
        "thing"
      ],
      [
        "fi",
        "re"
      ],
      [
        "l",
        "s"
      ],
      [
        "u",
        "ck"
      ],
      [
        "is",
        "e"
      ],
      [
        "ti",
        "c"
      ],
      [
        "dr",
        "agon"
      ],
      [
        "m",
        "ake"
      ],
      [
        "se",
        "en"
      ],
      [
        "abo",
        "ve"
      ],
      [
        "B",
        "e"
      ],
      [
        "s",
        "ha"
      ],
      [
        "f",
        "ull"
      ],
      [
        "l",
        "ay"
      ],
      [
        "an",
        "k"
      ],
      [
        "ri",
        "ver"
      ],
      [
        "fe",
        "et"
      ],
      [
        "A",
        "s"
      ],
      [
        "su",
        "dden"
      ],
      [
        "M",
        "r"
      ],
      [
        "e",
        "f"
      ],
      [
        "t",
        "al"
      ],
      [
        "w",
        "h"
      ],
      [
        "che",
        "s"
      ],
      [
        "m",
        "ountain"
      ],
      [
        "ou",
        "th"
      ],
      [
        "is",
        "t"
      ],
      [
        "him",
        "self"
      ],
      [
        "re",
        "m"
      ],
      [
        "ne",
        "ar"
      ],
      [
        "ap",
        "pe"
      ],
      [
        "op",
        "en"
      ],
      [
        "c",
        "all"
      ],
      [
        "f",
        "ace"
      ],
      [
        "s",
        "er"
      ],
      [
        "x",
        "t"
      ],
      [
        "st",
        "re"
      ],
      [
        "l",
        "ing"
      ],
      [
        "l",
        "ves"
      ],
      [
        "n",
        "ess"
      ],
      [
        "re",
        "st"
      ],
      [
        "un",
        "til"
      ],
      [
        "read",
        "y"
      ],
      [
        "b",
        "us"
      ],
      [
        "i",
        "ce"
      ],
      [
        "th",
        "re"
      ],
      [
        "le",
        "t"
      ],
      [
        "thing",
        "s"
      ],
      [
        "N",
        "ow"
      ],
      [
        "s",
        "il"
      ],
      [
        "c",
        "tion"
      ],
      [
        "on",
        "ce"
      ],
      [
        "st",
        "ar"
      ],
      [
        "some",
        "thing"
      ],
      [
        "c",
        "hed"
      ],
      [
        "p",
        "ass"
      ],
      [
        "ing",
        "s"
      ],
      [
        "h",
        "ard"
      ],
      [
        "p",
        "ut"
      ],
      [
        "au",
        "g"
      ],
      [
        "r",
        "ow"
      ],
      [
        "s",
        "ent"
      ],
      [
        "cre",
        "ature"
      ],
      [
        "d",
        "re"
      ],
      [
        "st",
        "and"
      ],
      [
        "We",
        "ll"
      ],
      [
        "a",
        "king"
      ],
      [
        "c",
        "ried"
      ],
      [
        "or",
        "n"
      ],
      [
        "with",
        "out"
      ],
      [
        "a",
        "le"
      ],
      [
        "g",
        "s"
      ],
      [
        "n",
        "g"
      ],
      [
        "o",
        "b"
      ],
      [
        "s",
        "ho"
      ],
      [
        "go",
        "ing"
      ],
      [
        "de",
        "ep"
      ],
      [
        "hi",
        "gh"
      ],
      [
        "al",
        "ong"
      ],
      [
        "I",
        "f"
      ],
      [
        "f",
        "all"
      ],
      [
        "tr",
        "y"
      ],
      [
        "tre",
        "e"
      ],
      [
        "m",
        "ar"
      ],
      [
        "s",
        "ur"
      ],
      [
        "b",
        "ro"
      ],
      [
        "i",
        "z"
      ],
      [
        "n",
        "or"
      ],
      [
        "st",
        "e"
      ],
      [
        "turn",
        "ed"
      ],
      [
        "o",
        "m"
      ],
      [
        "s",
        "ed"
      ],
      [
        "i",
        "li"
      ],
      [
        "o",
        "se"
      ],
      [
        "p",
        "ath"
      ],
      [
        "fi",
        "c"
      ],
      [
        "loo",
        "k"
      ],
      [
        "T",
        "his"
      ],
      [
        "p",
        "ing"
      ],
      [
        "an",
        "ge"
      ],
      [
        "oo",
        "k"
      ],
      [
        "bl",
        "ack"
      ],
      [
        "cour",
        "se"
      ],
      [
        "B",
        "agg"
      ],
      [
        "d",
        "if"
      ],
      [
        "l",
        "t"
      ],
      [
        "on",
        "es"
      ],
      [
        "fe",
        "el"
      ],
      [
        "beg",
        "an"
      ],
      [
        "Bagg",
        "ins"
      ],
      [
        "d",
        "an"
      ],
      [
        "s",
        "l"
      ],
      [
        "se",
        "t"
      ],
      [
        "go",
        "ld"
      ],
      [
        "m",
        "at"
      ],
      [
        "t",
        "ake"
      ],
      [
        "ti",
        "ll"
      ],
      [
        "A",
        "t"
      ],
      [
        "s",
        "k"
      ],
      [
        "s",
        "at"
      ],
      [
        "gr",
        "ound"
      ],
      [
        "m",
        "on"
      ],
      [
        "r",
        "un"
      ],
      [
        "s",
        "it"
      ],
      [
        "s",
        "too"
      ],
      [
        "mo",
        "ment"
      ],
      [
        "too",
        "k"
      ],
      [
        "c",
        "as"
      ],
      [
        "m",
        "is"
      ],
      [
        "t",
        "un"
      ],
      [
        "to",
        "r"
      ],
      [
        "sa",
        "me"
      ],
      [
        "op",
        "le"
      ],
      [
        "sm",
        "all"
      ],
      [
        "I",
        "nd"
      ],
      [
        "c",
        "ur"
      ],
      [
        "th",
        "ose"
      ],
      [
        "ir",
        "d"
      ],
      [
        "us",
        "ed"
      ],
      [
        "te",
        "ll"
      ],
      [
        "Ind",
        "i"
      ],
      [
        "a",
        "me"
      ],
      [
        "c",
        "hi"
      ],
      [
        "l",
        "ar"
      ],
      [
        "ll",
        "ed"
      ],
      [
        "s",
        "un"
      ],
      [
        "ll",
        "um"
      ],
      [
        "way",
        "s"
      ],
      [
        "fore",
        "st"
      ],
      [
        "day",
        "s"
      ],
      [
        "won",
        "der"
      ],
      [
        "i",
        "ous"
      ],
      [
        "at",
        "t"
      ],
      [
        "dis",
        "t"
      ],
      [
        "c",
        "amp"
      ],
      [
        "g",
        "ive"
      ],
      [
        "r",
        "u"
      ],
      [
        "w",
        "all"
      ],
      [
        "in",
        "ed"
      ],
      [
        "qu",
        "ite"
      ],
      [
        "c",
        "ha"
      ],
      [
        "i",
        "ble"
      ],
      [
        "in",
        "ce"
      ],
      [
        "as",
        "ter"
      ],
      [
        "ac",
        "ross"
      ],
      [
        "ig",
        "n"
      ],
      [
        "e",
        "ach"
      ],
      [
        "h",
        "u"
      ],
      [
        "p",
        "on"
      ],
      [
        "s",
        "c"
      ],
      [
        "as",
        "ked"
      ],
      [
        "ar",
        "y"
      ],
      [
        "st",
        "one"
      ],
      [
        "mor",
        "ning"
      ],
      [
        "s",
        "po"
      ],
      [
        "u",
        "d"
      ],
      [
        "re",
        "n"
      ],
      [
        "al",
        "in"
      ],
      [
        "ard",
        "s"
      ],
      [
        "hel",
        "p"
      ],
      [
        "vent",
        "ure"
      ],
      [
        "S",
        "m"
      ],
      [
        "a",
        "il"
      ],
      [
        "c",
        "ted"
      ],
      [
        "w",
        "r"
      ],
      [
        "ll",
        "s"
      ],
      [
        "pe",
        "ople"
      ],
      [
        "po",
        "ss"
      ],
      [
        "te",
        "red"
      ],
      [
        "el",
        "ves"
      ],
      [
        "hap",
        "p"
      ],
      [
        "m",
        "es"
      ],
      [
        "s",
        "had"
      ],
      [
        "on",
        "d"
      ],
      [
        "to",
        "w"
      ],
      [
        "li",
        "fe"
      ],
      [
        "d",
        "ou"
      ],
      [
        "en",
        "ough"
      ],
      [
        "you",
        "ng"
      ],
      [
        "li",
        "e"
      ],
      [
        "ri",
        "ble"
      ],
      [
        "com",
        "p"
      ],
      [
        "sudden",
        "ly"
      ],
      [
        "O",
        "n"
      ],
      [
        "a",
        "id"
      ],
      [
        "an",
        "other"
      ],
      [
        "is",
        "hed"
      ],
      [
        "br",
        "an"
      ],
      [
        "cle",
        "ar"
      ],
      [
        "Sm",
        "aug"
      ],
      [
        "ou",
        "d"
      ],
      [
        "en",
        "e"
      ],
      [
        "us",
        "h"
      ],
      [
        "friend",
        "s"
      ],
      [
        "T",
        "h"
      ],
      [
        "b",
        "ed"
      ],
      [
        "c",
        "er"
      ],
      [
        "i",
        "ly"
      ],
      [
        "s",
        "ound"
      ],
      [
        "ed",
        "ge"
      ],
      [
        "to",
        "ge"
      ],
      [
        "ha",
        "lf"
      ],
      [
        "ke",
        "t"
      ],
      [
        "de",
        "ed"
      ],
      [
        "ion",
        "s"
      ],
      [
        "br",
        "ought"
      ],
      [
        "toge",
        "ther"
      ],
      [
        "f",
        "ast"
      ],
      [
        "k",
        "n"
      ],
      [
        "k",
        "en"
      ],
      [
        "be",
        "ing"
      ],
      [
        "al",
        "one"
      ],
      [
        "a",
        "v"
      ],
      [
        "k",
        "s"
      ],
      [
        "who",
        "le"
      ],
      [
        "Go",
        "llum"
      ],
      [
        "wa",
        "it"
      ],
      [
        "g",
        "ave"
      ],
      [
        "j",
        "o"
      ],
      [
        "on",
        "s"
      ],
      [
        "we",
        "en"
      ],
      [
        "ul",
        "t"
      ],
      [
        "bet",
        "ween"
      ],
      [
        "thre",
        "e"
      ],
      [
        "stoo",
        "d"
      ],
      [
        "m",
        "p"
      ],
      [
        "s",
        "ure"
      ],
      [
        "s",
        "low"
      ],
      [
        "w",
        "ind"
      ],
      [
        "re",
        "me"
      ],
      [
        "er",
        "ing"
      ],
      [
        "al",
        "so"
      ],
      [
        "lo",
        "st"
      ],
      [
        "ex",
        "pe"
      ],
      [
        "dou",
        "b"
      ],
      [
        "d",
        "one"
      ],
      [
        "th",
        "in"
      ],
      [
        "re",
        "ally"
      ],
      [
        "fe",
        "w"
      ],
      [
        "So",
        "me"
      ],
      [
        "ron",
        "t"
      ],
      [
        "g",
        "i"
      ],
      [
        "g",
        "one"
      ],
      [
        "m",
        "ind"
      ],
      [
        "gre",
        "en"
      ],
      [
        "other",
        "s"
      ],
      [
        "di",
        "re"
      ],
      [
        "B",
        "o"
      ],
      [
        "c",
        "ent"
      ],
      [
        "al",
        "ways"
      ],
      [
        "ad",
        "venture"
      ],
      [
        "A",
        "ll"
      ],
      [
        "d",
        "y"
      ],
      [
        "f",
        "oo"
      ],
      [
        "m",
        "it"
      ],
      [
        "he",
        "s"
      ],
      [
        "fo",
        "llow"
      ],
      [
        "com",
        "ing"
      ],
      [
        "wor",
        "ld"
      ],
      [
        "par",
        "t"
      ],
      [
        "dan",
        "ger"
      ],
      [
        "s",
        "ince"
      ],
      [
        "ac",
        "es"
      ],
      [
        "qu",
        "ick"
      ],
      [
        "hand",
        "s"
      ],
      [
        "poin",
        "t"
      ],
      [
        "mountain",
        "s"
      ],
      [
        "hu",
        "ge"
      ],
      [
        "F",
        "or"
      ],
      [
        "d",
        "red"
      ],
      [
        "p",
        "i"
      ],
      [
        "id",
        "d"
      ],
      [
        "all",
        "ey"
      ],
      [
        "hun",
        "dred"
      ],
      [
        "cli",
        "ff"
      ],
      [
        "b",
        "ur"
      ],
      [
        "g",
        "g"
      ],
      [
        "j",
        "e"
      ],
      [
        "s",
        "ci"
      ],
      [
        "en",
        "s"
      ],
      [
        "to",
        "p"
      ],
      [
        "to",
        "wards"
      ],
      [
        "ar",
        "s"
      ],
      [
        "al",
        "ready"
      ],
      [
        "ho",
        "pe"
      ],
      [
        "str",
        "ange"
      ],
      [
        "mb",
        "er"
      ],
      [
        "tow",
        "n"
      ],
      [
        "b",
        "ar"
      ],
      [
        "es",
        "tion"
      ],
      [
        "se",
        "lves"
      ],
      [
        "id",
        "er"
      ],
      [
        "po",
        "se"
      ],
      [
        "ex",
        "ce"
      ],
      [
        "wh",
        "ite"
      ],
      [
        "lar",
        "ge"
      ],
      [
        "f",
        "le"
      ],
      [
        "t",
        "ro"
      ],
      [
        "be",
        "low"
      ],
      [
        "pl",
        "ate"
      ],
      [
        "c",
        "es"
      ],
      [
        "c",
        "ri"
      ],
      [
        "k",
        "new"
      ],
      [
        "t",
        "able"
      ],
      [
        "v",
        "alley"
      ],
      [
        "qu",
        "i"
      ],
      [
        "gu",
        "ess"
      ],
      [
        "vo",
        "ice"
      ],
      [
        "B",
        "alin"
      ],
      [
        "H",
        "is"
      ],
      [
        "R",
        "o"
      ],
      [
        "b",
        "ird"
      ],
      [
        "c",
        "ed"
      ],
      [
        "f",
        "our"
      ],
      [
        "f",
        "ront"
      ],
      [
        "h",
        "ur"
      ],
      [
        "h",
        "um"
      ],
      [
        "t",
        "in"
      ],
      [
        "er",
        "y"
      ],
      [
        "he",
        "n"
      ],
      [
        "wi",
        "z"
      ],
      [
        "us",
        "hed"
      ],
      [
        "ca",
        "use"
      ],
      [
        "bet",
        "ter"
      ],
      [
        "ple",
        "as"
      ],
      [
        "k",
        "ind"
      ],
      [
        "en",
        "ti"
      ],
      [
        "mo",
        "on"
      ],
      [
        "again",
        "st"
      ],
      [
        "tun",
        "ne"
      ],
      [
        "plate",
        "au"
      ],
      [
        "e",
        "ag"
      ],
      [
        "e",
        "red"
      ],
      [
        "h",
        "er"
      ],
      [
        "l",
        "ad"
      ],
      [
        "l",
        "ake"
      ],
      [
        "n",
        "ed"
      ],
      [
        "o",
        "me"
      ],
      [
        "ou",
        "se"
      ],
      [
        "un",
        "g"
      ],
      [
        "ke",
        "ep"
      ],
      [
        "co",
        "ld"
      ],
      [
        "ne",
        "xt"
      ],
      [
        "hap",
        "s"
      ],
      [
        "pass",
        "ed"
      ],
      [
        "f",
        "lo"
      ],
      [
        "m",
        "in"
      ],
      [
        "le",
        "ep"
      ],
      [
        "st",
        "ep"
      ],
      [
        "ho",
        "ld"
      ],
      [
        "Indi",
        "ans"
      ],
      [
        "T",
        "o"
      ],
      [
        "f",
        "air"
      ],
      [
        "s",
        "n"
      ],
      [
        "in",
        "ter"
      ],
      [
        "me",
        "an"
      ],
      [
        "ve",
        "red"
      ],
      [
        "ut",
        "e"
      ],
      [
        "bl",
        "ed"
      ],
      [
        "how",
        "ever"
      ],
      [
        "cli",
        "mb"
      ],
      [
        "W",
        "h"
      ],
      [
        "b",
        "er"
      ],
      [
        "b",
        "es"
      ],
      [
        "p",
        "ers"
      ],
      [
        "as",
        "h"
      ],
      [
        "as",
        "sa"
      ],
      [
        "for",
        "m"
      ],
      [
        "for",
        "ward"
      ],
      [
        "il",
        "es"
      ],
      [
        "ul",
        "ar"
      ],
      [
        "word",
        "s"
      ],
      [
        "Be",
        "orn"
      ],
      [
        "dire",
        "ction"
      ],
      [
        "W",
        "hen"
      ],
      [
        "s",
        "ign"
      ],
      [
        "v",
        "is"
      ],
      [
        "ar",
        "m"
      ],
      [
        "ti",
        "mes"
      ],
      [
        "ne",
        "ed"
      ],
      [
        "con",
        "d"
      ],
      [
        "pre",
        "ss"
      ],
      [
        "str",
        "ong"
      ],
      [
        "bre",
        "ak"
      ],
      [
        "stre",
        "am"
      ],
      [
        "doub",
        "t"
      ],
      [
        "S",
        "outh"
      ],
      [
        "b",
        "ig"
      ],
      [
        "w",
        "al"
      ],
      [
        "as",
        "k"
      ],
      [
        "ch",
        "ing"
      ],
      [
        "fe",
        "lt"
      ],
      [
        "qu",
        "estion"
      ],
      [
        "im",
        "p"
      ],
      [
        "loo",
        "king"
      ],
      [
        "pre",
        "ci"
      ],
      [
        "itt",
        "ing"
      ],
      [
        "mat",
        "ter"
      ],
      [
        "cer",
        "tain"
      ],
      [
        "wiz",
        "ard"
      ],
      [
        "b",
        "ank"
      ],
      [
        "j",
        "our"
      ],
      [
        "t",
        "ri"
      ],
      [
        "in",
        "ess"
      ],
      [
        "re",
        "turn"
      ],
      [
        "le",
        "ast"
      ],
      [
        "sa",
        "fe"
      ],
      [
        "my",
        "self"
      ],
      [
        "de",
        "ad"
      ],
      [
        "end",
        "ed"
      ],
      [
        "ear",
        "s"
      ],
      [
        "appe",
        "ared"
      ],
      [
        "call",
        "ed"
      ],
      [
        "c",
        "u"
      ],
      [
        "d",
        "ro"
      ],
      [
        "e",
        "v"
      ],
      [
        "e",
        "at"
      ],
      [
        "o",
        "c"
      ],
      [
        "or",
        "i"
      ],
      [
        "wi",
        "ld"
      ],
      [
        "ain",
        "ed"
      ],
      [
        "fe",
        "ar"
      ],
      [
        "ca",
        "re"
      ],
      [
        "chi",
        "ef"
      ],
      [
        "kn",
        "own"
      ],
      [
        "W",
        "i"
      ],
      [
        "s",
        "he"
      ],
      [
        "w",
        "ant"
      ],
      [
        "so",
        "l"
      ],
      [
        "bo",
        "dy"
      ],
      [
        "gr",
        "y"
      ],
      [
        "com",
        "for"
      ],
      [
        "get",
        "ting"
      ],
      [
        "mb",
        "ur"
      ],
      [
        "No",
        "t"
      ],
      [
        "pr",
        "is"
      ],
      [
        "Bo",
        "mbur"
      ],
      [
        "f",
        "ter"
      ],
      [
        "s",
        "ort"
      ],
      [
        "y",
        "e"
      ],
      [
        "es",
        "ca"
      ],
      [
        "be",
        "lie"
      ],
      [
        "ly",
        "ing"
      ],
      [
        "creature",
        "s"
      ],
      [
        "A",
        "fter"
      ],
      [
        "B",
        "ard"
      ],
      [
        "a",
        "ut"
      ],
      [
        "b",
        "ow"
      ],
      [
        "b",
        "est"
      ],
      [
        "e",
        "as"
      ],
      [
        "r",
        "an"
      ],
      [
        "w",
        "his"
      ],
      [
        "w",
        "ide"
      ],
      [
        "to",
        "ld"
      ],
      [
        "bo",
        "th"
      ],
      [
        "pre",
        "sent"
      ],
      [
        "H",
        "ow"
      ],
      [
        "L",
        "ake"
      ],
      [
        "f",
        "ur"
      ],
      [
        "f",
        "act"
      ],
      [
        "s",
        "w"
      ],
      [
        "s",
        "li"
      ],
      [
        "s",
        "ong"
      ],
      [
        "u",
        "ally"
      ],
      [
        "re",
        "p"
      ],
      [
        "as",
        "ure"
      ],
      [
        "be",
        "y"
      ],
      [
        "mo",
        "ve"
      ],
      [
        "sh",
        "out"
      ],
      [
        "hor",
        "rible"
      ],
      [
        "dr",
        "aw"
      ],
      [
        "ak",
        "en"
      ],
      [
        "wood",
        "s"
      ],
      [
        "hard",
        "ly"
      ],
      [
        "i",
        "ther"
      ],
      [
        "l",
        "ine"
      ],
      [
        "n",
        "er"
      ],
      [
        "s",
        "ir"
      ],
      [
        "u",
        "ght"
      ],
      [
        "in",
        "deed"
      ],
      [
        "ar",
        "p"
      ],
      [
        "le",
        "gs"
      ],
      [
        "be",
        "cause"
      ],
      [
        "ac",
        "hed"
      ],
      [
        "ho",
        "me"
      ],
      [
        "ne",
        "y"
      ],
      [
        "ck",
        "ed"
      ],
      [
        "sh",
        "ow"
      ],
      [
        "c",
        "ir"
      ],
      [
        "p",
        "es"
      ],
      [
        "u",
        "b"
      ],
      [
        "ca",
        "ught"
      ],
      [
        "any",
        "thing"
      ],
      [
        "gre",
        "w"
      ],
      [
        "gr",
        "ow"
      ],
      [
        "sup",
        "pose"
      ],
      [
        "dif",
        "fic"
      ],
      [
        "slow",
        "ly"
      ],
      [
        "pers",
        "on"
      ],
      [
        "jour",
        "ney"
      ],
      [
        "M",
        "y"
      ],
      [
        "e",
        "ld"
      ],
      [
        "g",
        "es"
      ],
      [
        "l",
        "au"
      ],
      [
        "n",
        "ar"
      ],
      [
        "p",
        "ic"
      ],
      [
        "y",
        "s"
      ],
      [
        "an",
        "im"
      ],
      [
        "re",
        "al"
      ],
      [
        "me",
        "et"
      ],
      [
        "be",
        "ard"
      ],
      [
        "ro",
        "ad"
      ],
      [
        "ch",
        "o"
      ],
      [
        "ch",
        "ar"
      ],
      [
        "um",
        "p"
      ],
      [
        "ins",
        "ide"
      ],
      [
        "coun",
        "t"
      ],
      [
        "pon",
        "ies"
      ],
      [
        "poss",
        "ible"
      ],
      [
        "a",
        "pe"
      ],
      [
        "c",
        "ess"
      ],
      [
        "f",
        "ood"
      ],
      [
        "h",
        "our"
      ],
      [
        "r",
        "ather"
      ],
      [
        "v",
        "an"
      ],
      [
        "ag",
        "o"
      ],
      [
        "qu",
        "e"
      ],
      [
        "coun",
        "try"
      ],
      [
        "iz",
        "e"
      ],
      [
        "tunne",
        "l"
      ],
      [
        "anim",
        "al"
      ],
      [
        "F",
        "ili"
      ],
      [
        "a",
        "the"
      ],
      [
        "h",
        "ouse"
      ],
      [
        "m",
        "iles"
      ],
      [
        "o",
        "d"
      ],
      [
        "s",
        "lo"
      ],
      [
        "s",
        "itting"
      ],
      [
        "en",
        "se"
      ],
      [
        "co",
        "vered"
      ],
      [
        "bo",
        "at"
      ],
      [
        "appe",
        "ar"
      ],
      [
        "bus",
        "iness"
      ],
      [
        "cha",
        "ir"
      ],
      [
        "E",
        "l"
      ],
      [
        "n",
        "at"
      ],
      [
        "s",
        "cr"
      ],
      [
        "re",
        "as"
      ],
      [
        "beg",
        "in"
      ],
      [
        "full",
        "y"
      ],
      [
        "sho",
        "t"
      ],
      [
        "bran",
        "ches"
      ],
      [
        "qui",
        "et"
      ],
      [
        "belie",
        "ve"
      ],
      [
        "bey",
        "ond"
      ],
      [
        "A",
        "l"
      ],
      [
        "B",
        "y"
      ],
      [
        "S",
        "u"
      ],
      [
        "f",
        "in"
      ],
      [
        "f",
        "re"
      ],
      [
        "n",
        "ame"
      ],
      [
        "r",
        "is"
      ],
      [
        "s",
        "wi"
      ],
      [
        "le",
        "ave"
      ],
      [
        "ro",
        "pe"
      ],
      [
        "ne",
        "are"
      ],
      [
        "fe",
        "ren"
      ],
      [
        "po",
        "c"
      ],
      [
        "pl",
        "ain"
      ],
      [
        "can",
        "not"
      ],
      [
        "tre",
        "asure"
      ],
      [
        "even",
        "ing"
      ],
      [
        "xt",
        "on"
      ],
      [
        "comp",
        "an"
      ],
      [
        "reme",
        "mber"
      ],
      [
        "Ro",
        "xton"
      ],
      [
        "T",
        "H"
      ],
      [
        "f",
        "low"
      ],
      [
        "g",
        "ed"
      ],
      [
        "l",
        "uck"
      ],
      [
        "m",
        "ag"
      ],
      [
        "r",
        "or"
      ],
      [
        "s",
        "mo"
      ],
      [
        "s",
        "pl"
      ],
      [
        "th",
        "ick"
      ],
      [
        "ar",
        "ms"
      ],
      [
        "le",
        "a"
      ],
      [
        "do",
        "es"
      ],
      [
        "pl",
        "an"
      ],
      [
        "wor",
        "k"
      ],
      [
        "ans",
        "w"
      ],
      [
        "tal",
        "k"
      ],
      [
        "near",
        "ly"
      ],
      [
        "dist",
        "ance"
      ],
      [
        "D",
        "on"
      ],
      [
        "O",
        "ne"
      ],
      [
        "f",
        "ather"
      ],
      [
        "k",
        "ill"
      ],
      [
        "w",
        "ish"
      ],
      [
        "en",
        "er"
      ],
      [
        "it",
        "ion"
      ],
      [
        "co",
        "ll"
      ],
      [
        "fi",
        "lled"
      ],
      [
        "op",
        "ened"
      ],
      [
        "gu",
        "ard"
      ],
      [
        "rock",
        "s"
      ],
      [
        "dre",
        "am"
      ],
      [
        "ene",
        "ath"
      ],
      [
        "A",
        "mer"
      ],
      [
        "g",
        "ri"
      ],
      [
        "p",
        "assa"
      ],
      [
        "s",
        "word"
      ],
      [
        "be",
        "ar"
      ],
      [
        "ro",
        "om"
      ],
      [
        "ho",
        "le"
      ],
      [
        "whe",
        "ther"
      ],
      [
        "sh",
        "ort"
      ],
      [
        "bl",
        "ue"
      ],
      [
        "br",
        "ing"
      ],
      [
        "im",
        "ag"
      ],
      [
        "ic",
        "al"
      ],
      [
        "dark",
        "ness"
      ],
      [
        "fell",
        "ow"
      ],
      [
        "vo",
        "l"
      ],
      [
        "hear",
        "t"
      ],
      [
        "foo",
        "t"
      ],
      [
        "bar",
        "re"
      ],
      [
        "Amer",
        "i"
      ],
      [
        "C",
        "ome"
      ],
      [
        "c",
        "ross"
      ],
      [
        "i",
        "le"
      ],
      [
        "m",
        "aking"
      ],
      [
        "r",
        "a"
      ],
      [
        "s",
        "hi"
      ],
      [
        "s",
        "ight"
      ],
      [
        "s",
        "leep"
      ],
      [
        "t",
        "aken"
      ],
      [
        "in",
        "te"
      ],
      [
        "he",
        "ld"
      ],
      [
        "ll",
        "ing"
      ],
      [
        "st",
        "ones"
      ],
      [
        "id",
        "ent"
      ],
      [
        "ag",
        "ed"
      ],
      [
        "con",
        "f"
      ],
      [
        "long",
        "er"
      ],
      [
        "dwar",
        "f"
      ],
      [
        "cr",
        "y"
      ],
      [
        "ation",
        "s"
      ],
      [
        "head",
        "s"
      ],
      [
        "land",
        "s"
      ],
      [
        "sil",
        "ver"
      ],
      [
        "att",
        "le"
      ],
      [
        "flo",
        "or"
      ],
      [
        "b",
        "eneath"
      ],
      [
        "e",
        "w"
      ],
      [
        "g",
        "ro"
      ],
      [
        "n",
        "um"
      ],
      [
        "p",
        "ri"
      ],
      [
        "s",
        "or"
      ],
      [
        "in",
        "ing"
      ],
      [
        "re",
        "ly"
      ],
      [
        "or",
        "m"
      ],
      [
        "le",
        "ad"
      ],
      [
        "al",
        "most"
      ],
      [
        "ab",
        "ly"
      ],
      [
        "ey",
        "e"
      ],
      [
        "clo",
        "se"
      ],
      [
        "f",
        "right"
      ],
      [
        "r",
        "ain"
      ],
      [
        "w",
        "and"
      ],
      [
        "y",
        "es"
      ],
      [
        "be",
        "ast"
      ],
      [
        "id",
        "es"
      ],
      [
        "out",
        "side"
      ],
      [
        "il",
        "ed"
      ],
      [
        "po",
        "or"
      ],
      [
        "te",
        "en"
      ],
      [
        "car",
        "ried"
      ],
      [
        "iz",
        "ed"
      ],
      [
        "dif",
        "feren"
      ],
      [
        "feel",
        "ing"
      ],
      [
        "inte",
        "rest"
      ],
      [
        "d",
        "read"
      ],
      [
        "i",
        "ves"
      ],
      [
        "l",
        "k"
      ],
      [
        "l",
        "ate"
      ],
      [
        "p",
        "ick"
      ],
      [
        "t",
        "all"
      ],
      [
        "u",
        "ff"
      ],
      [
        "li",
        "ved"
      ],
      [
        "ad",
        "d"
      ],
      [
        "with",
        "in"
      ],
      [
        "con",
        "s"
      ],
      [
        "el",
        "se"
      ],
      [
        "under",
        "stand"
      ],
      [
        "car",
        "ry"
      ],
      [
        "wh",
        "y"
      ],
      [
        "rem",
        "ark"
      ],
      [
        "open",
        "ing"
      ],
      [
        "fur",
        "ther"
      ],
      [
        "answ",
        "er"
      ],
      [
        "A",
        "r"
      ],
      [
        "E",
        "R"
      ],
      [
        "E",
        "ven"
      ],
      [
        "F",
        "rom"
      ],
      [
        "N",
        "or"
      ],
      [
        "c",
        "at"
      ],
      [
        "c",
        "ut"
      ],
      [
        "d",
        "ri"
      ],
      [
        "t",
        "ent"
      ],
      [
        "v",
        "al"
      ],
      [
        "en",
        "g"
      ],
      [
        "en",
        "orm"
      ],
      [
        "it",
        "ed"
      ],
      [
        "ch",
        "ance"
      ],
      [
        "them",
        "selves"
      ],
      [
        "de",
        "red"
      ],
      [
        "ap",
        "ped"
      ],
      [
        "end",
        "ing"
      ],
      [
        "ex",
        "p"
      ],
      [
        "gr",
        "ass"
      ],
      [
        "per",
        "i"
      ],
      [
        "spe",
        "ak"
      ],
      [
        "preci",
        "ous"
      ],
      [
        "reas",
        "on"
      ],
      [
        "enorm",
        "ous"
      ],
      [
        "L",
        "et"
      ],
      [
        "b",
        "ad"
      ],
      [
        "p",
        "ack"
      ],
      [
        "s",
        "we"
      ],
      [
        "t",
        "w"
      ],
      [
        "er",
        "t"
      ],
      [
        "ha",
        "ir"
      ],
      [
        "le",
        "ap"
      ],
      [
        "st",
        "ant"
      ],
      [
        "be",
        "aut"
      ],
      [
        "The",
        "ir"
      ],
      [
        "ca",
        "ves"
      ],
      [
        "ex",
        "c"
      ],
      [
        "tr",
        "ue"
      ],
      [
        "ide",
        "a"
      ],
      [
        "br",
        "id"
      ],
      [
        "ci",
        "ally"
      ],
      [
        "per",
        "haps"
      ],
      [
        "So",
        "on"
      ],
      [
        "gobl",
        "in"
      ],
      [
        "sto",
        "pped"
      ],
      [
        "vi",
        "ew"
      ],
      [
        "des",
        "cri"
      ],
      [
        "cas",
        "e"
      ],
      [
        "spo",
        "ke"
      ],
      [
        "expe",
        "ct"
      ],
      [
        "Wi",
        "th"
      ],
      [
        ")",
        ","
      ],
      [
        "F",
        "o"
      ],
      [
        "g",
        "un"
      ],
      [
        "g",
        "ent"
      ],
      [
        "g",
        "ate"
      ],
      [
        "h",
        "ood"
      ],
      [
        "p",
        "ow"
      ],
      [
        "p",
        "ur"
      ],
      [
        "y",
        "ears"
      ],
      [
        "at",
        "er"
      ],
      [
        "se",
        "ver"
      ],
      [
        "id",
        "ers"
      ],
      [
        "for",
        "got"
      ],
      [
        "ke",
        "pt"
      ],
      [
        "ag",
        "es"
      ],
      [
        "fe",
        "ct"
      ],
      [
        "ca",
        "ve"
      ],
      [
        "He",
        "re"
      ],
      [
        "tr",
        "u"
      ],
      [
        "tr",
        "ou"
      ],
      [
        "shad",
        "ow"
      ],
      [
        "shad",
        "ows"
      ],
      [
        "expe",
        "cted"
      ],
      [
        "adventure",
        "s"
      ],
      [
        "break",
        "fast"
      ],
      [
        "sever",
        "al"
      ],
      [
        "K",
        "ili"
      ],
      [
        "M",
        "alone"
      ],
      [
        "O",
        "f"
      ],
      [
        "b",
        "u"
      ],
      [
        "h",
        "ang"
      ],
      [
        "i",
        "x"
      ],
      [
        "n",
        "y"
      ],
      [
        "n",
        "one"
      ],
      [
        "r",
        "ang"
      ],
      [
        "re",
        "ached"
      ],
      [
        "at",
        "ing"
      ],
      [
        "le",
        "ar"
      ],
      [
        "st",
        "er"
      ],
      [
        "be",
        "red"
      ],
      [
        "no",
        "ise"
      ],
      [
        "de",
        "al"
      ],
      [
        "fo",
        "lk"
      ],
      [
        "lo",
        "g"
      ],
      [
        "bl",
        "ing"
      ],
      [
        "fi",
        "ve"
      ],
      [
        "let",
        "ter"
      ],
      [
        "bro",
        "ken"
      ],
      [
        "enti",
        "fic"
      ],
      [
        "Wh",
        "y"
      ],
      [
        "bes",
        "ide"
      ],
      [
        "begin",
        "ning"
      ],
      [
        "D",
        "ori"
      ],
      [
        "H",
        "A"
      ],
      [
        "R",
        "i"
      ],
      [
        "W",
        "here"
      ],
      [
        "c",
        "ing"
      ],
      [
        "f",
        "er"
      ],
      [
        "g",
        "le"
      ],
      [
        "l",
        "it"
      ],
      [
        "m",
        "id"
      ],
      [
        "m",
        "outh"
      ],
      [
        "p",
        "in"
      ],
      [
        "p",
        "at"
      ],
      [
        "s",
        "me"
      ],
      [
        "u",
        "al"
      ],
      [
        "an",
        "ted"
      ],
      [
        "an",
        "gry"
      ],
      [
        "he",
        "av"
      ],
      [
        "is",
        "ed"
      ],
      [
        "se",
        "cre"
      ],
      [
        "The",
        "se"
      ],
      [
        "ke",
        "ts"
      ],
      [
        "were",
        "d"
      ],
      [
        "if",
        "ul"
      ],
      [
        "sp",
        "iders"
      ],
      [
        "cr",
        "ack"
      ],
      [
        "vi",
        "ce"
      ],
      [
        "Go",
        "bl"
      ],
      [
        "fall",
        "en"
      ],
      [
        "sk",
        "y"
      ],
      [
        "sci",
        "entific"
      ],
      [
        "hum",
        "an"
      ],
      [
        "pris",
        "on"
      ],
      [
        "D",
        "ale"
      ],
      [
        "M",
        "aster"
      ],
      [
        "W",
        "ill"
      ],
      [
        "l",
        "oud"
      ],
      [
        "n",
        "s"
      ],
      [
        "s",
        "on"
      ],
      [
        "or",
        "s"
      ],
      [
        "bo",
        "t"
      ],
      [
        "um",
        "bled"
      ],
      [
        "ast",
        "y"
      ],
      [
        "ex",
        "peri"
      ],
      [
        "tr",
        "un"
      ],
      [
        "see",
        "m"
      ],
      [
        "cas",
        "ion"
      ],
      [
        "gi",
        "ven"
      ],
      [
        "idd",
        "le"
      ],
      [
        "je",
        "ct"
      ],
      [
        "bird",
        "s"
      ],
      [
        "b",
        "right"
      ],
      [
        "b",
        "attle"
      ],
      [
        "d",
        "u"
      ],
      [
        "o",
        "l"
      ],
      [
        "or",
        "der"
      ],
      [
        "it",
        "self"
      ],
      [
        "am",
        "es"
      ],
      [
        "ca",
        "p"
      ],
      [
        "po",
        "sit"
      ],
      [
        "tr",
        "a"
      ],
      [
        "ment",
        "s"
      ],
      [
        "ans",
        "wered"
      ],
      [
        "dden",
        "ly"
      ],
      [
        "az",
        "e"
      ],
      [
        "dre",
        "w"
      ],
      [
        "wonder",
        "ful"
      ],
      [
        "comfor",
        "table"
      ],
      [
        "shout",
        "ed"
      ],
      [
        "Su",
        "ddenly"
      ],
      [
        "gle",
        "am"
      ],
      [
        "heav",
        "y"
      ],
      [
        "V",
        "ery"
      ],
      [
        "a",
        "ld"
      ],
      [
        "a",
        "im"
      ],
      [
        "b",
        "oo"
      ],
      [
        "e",
        "le"
      ],
      [
        "f",
        "am"
      ],
      [
        "f",
        "if"
      ],
      [
        "g",
        "ure"
      ],
      [
        "g",
        "ener"
      ],
      [
        "u",
        "ri"
      ],
      [
        "at",
        "ive"
      ],
      [
        "as",
        "hed"
      ],
      [
        "of",
        "ten"
      ],
      [
        "be",
        "came"
      ],
      [
        "li",
        "c"
      ],
      [
        "co",
        "l"
      ],
      [
        "sh",
        "arp"
      ],
      [
        "fi",
        "gure"
      ],
      [
        "su",
        "b"
      ],
      [
        "ate",
        "ly"
      ],
      [
        "sp",
        "ring"
      ],
      [
        "pre",
        "t"
      ],
      [
        "wo",
        "lves"
      ],
      [
        "wat",
        "ch"
      ],
      [
        "gl",
        "ar"
      ],
      [
        "bus",
        "hes"
      ],
      [
        "follow",
        "ed"
      ],
      [
        "athe",
        "red"
      ],
      [
        "beaut",
        "iful"
      ],
      [
        "G",
        "re"
      ],
      [
        "G",
        "ood"
      ],
      [
        "O",
        "ur"
      ],
      [
        "W",
        "ho"
      ],
      [
        "d",
        "are"
      ],
      [
        "e",
        "ither"
      ],
      [
        "g",
        "loo"
      ],
      [
        "g",
        "athered"
      ],
      [
        "l",
        "aid"
      ],
      [
        "t",
        "ou"
      ],
      [
        "ro",
        "se"
      ],
      [
        "ac",
        "count"
      ],
      [
        "al",
        "ive"
      ],
      [
        "ri",
        "fle"
      ],
      [
        "am",
        "id"
      ],
      [
        "il",
        "ing"
      ],
      [
        "ord",
        "in"
      ],
      [
        "sha",
        "re"
      ],
      [
        "sil",
        "ent"
      ],
      [
        "ob",
        "ser"
      ],
      [
        "certain",
        "ly"
      ],
      [
        "oc",
        "casion"
      ],
      [
        "lau",
        "gh"
      ],
      [
        "nar",
        "row"
      ],
      [
        "differen",
        "t"
      ],
      [
        "cons",
        "ider"
      ],
      [
        "brid",
        "ge"
      ],
      [
        ")",
        "."
      ],
      [
        "I",
        "I"
      ],
      [
        "P",
        "er"
      ],
      [
        "e",
        "k"
      ],
      [
        "e",
        "m"
      ],
      [
        "f",
        "r"
      ],
      [
        "m",
        "ap"
      ],
      [
        "p",
        "ast"
      ],
      [
        "s",
        "ion"
      ],
      [
        "s",
        "ize"
      ],
      [
        "t",
        "on"
      ],
      [
        "re",
        "g"
      ],
      [
        "at",
        "tered"
      ],
      [
        "ar",
        "t"
      ],
      [
        "ar",
        "ch"
      ],
      [
        "ha",
        "ving"
      ],
      [
        "se",
        "cond"
      ],
      [
        "hi",
        "ll"
      ],
      [
        "ain",
        "t"
      ],
      [
        "ne",
        "ck"
      ],
      [
        "um",
        "ped"
      ],
      [
        "there",
        "fore"
      ],
      [
        "pl",
        "aces"
      ],
      [
        "te",
        "e"
      ],
      [
        "ic",
        "es"
      ],
      [
        "str",
        "a"
      ],
      [
        "gl",
        "ad"
      ],
      [
        "ear",
        "th"
      ],
      [
        "sil",
        "ence"
      ],
      [
        "pi",
        "e"
      ],
      [
        "diffic",
        "ult"
      ],
      [
        "dread",
        "ful"
      ],
      [
        "secre",
        "t"
      ],
      [
        "E",
        "n"
      ],
      [
        "O",
        "R"
      ],
      [
        "Y",
        "es"
      ],
      [
        "c",
        "us"
      ],
      [
        "s",
        "es"
      ],
      [
        "t",
        "ure"
      ],
      [
        "th",
        "ro"
      ],
      [
        "st",
        "ick"
      ],
      [
        "we",
        "l"
      ],
      [
        "ce",
        "ed"
      ],
      [
        "ter",
        "rible"
      ],
      [
        "de",
        "ar"
      ],
      [
        "lo",
        "t"
      ],
      [
        "ex",
        "ped"
      ],
      [
        "fi",
        "ght"
      ],
      [
        "te",
        "m"
      ],
      [
        "like",
        "ly"
      ],
      [
        "con",
        "tin"
      ],
      [
        "cl",
        "aim"
      ],
      [
        "wor",
        "th"
      ],
      [
        "par",
        "ts"
      ],
      [
        "new",
        "s"
      ],
      [
        "run",
        "ning"
      ],
      [
        "Indi",
        "an"
      ],
      [
        "wait",
        "ing"
      ],
      [
        "danger",
        "ous"
      ],
      [
        "exce",
        "pt"
      ],
      [
        "TH",
        "E"
      ],
      [
        "mag",
        "ic"
      ],
      [
        "Nor",
        "th"
      ],
      [
        "G",
        "ate"
      ],
      [
        "M",
        "ir"
      ],
      [
        "b",
        "b"
      ],
      [
        "c",
        "y"
      ],
      [
        "f",
        "at"
      ],
      [
        "h",
        "on"
      ],
      [
        "i",
        "am"
      ],
      [
        "l",
        "aug"
      ],
      [
        "n",
        "i"
      ],
      [
        "n",
        "asty"
      ],
      [
        "r",
        "ad"
      ],
      [
        "r",
        "ows"
      ],
      [
        "t",
        "led"
      ],
      [
        "t",
        "ried"
      ],
      [
        "u",
        "red"
      ],
      [
        "y",
        "ed"
      ],
      [
        "an",
        "ts"
      ],
      [
        "re",
        "ach"
      ],
      [
        "at",
        "es"
      ],
      [
        "st",
        "ay"
      ],
      [
        "id",
        "ence"
      ],
      [
        "li",
        "ve"
      ],
      [
        "for",
        "th"
      ],
      [
        "un",
        "d"
      ],
      [
        "ght",
        "er"
      ],
      [
        "sa",
        "ve"
      ],
      [
        "fi",
        "er"
      ],
      [
        "star",
        "ted"
      ],
      [
        "mon",
        "str"
      ],
      [
        "guess",
        "ed"
      ],
      [
        "esca",
        "pe"
      ],
      [
        "song",
        "s"
      ],
      [
        "swi",
        "ft"
      ],
      [
        "exp",
        "lo"
      ],
      [
        "trou",
        "ble"
      ],
      [
        "Ri",
        "ver"
      ],
      [
        "laug",
        "hed"
      ],
      [
        ".",
        ")"
      ],
      [
        "M",
        "o"
      ],
      [
        "b",
        "urn"
      ],
      [
        "c",
        "or"
      ],
      [
        "e",
        "lf"
      ],
      [
        "e",
        "mp"
      ],
      [
        "f",
        "ac"
      ],
      [
        "g",
        "li"
      ],
      [
        "i",
        "ed"
      ],
      [
        "p",
        "s"
      ],
      [
        "p",
        "al"
      ],
      [
        "p",
        "ter"
      ],
      [
        "r",
        "ough"
      ],
      [
        "r",
        "ace"
      ],
      [
        "t",
        "aking"
      ],
      [
        "w",
        "ings"
      ],
      [
        "in",
        "cl"
      ],
      [
        "he",
        "ight"
      ],
      [
        "me",
        "ant"
      ],
      [
        "al",
        "th"
      ],
      [
        "li",
        "ar"
      ],
      [
        "sh",
        "ri"
      ],
      [
        "lo",
        "ve"
      ],
      [
        "tr",
        "ave"
      ],
      [
        "au",
        "di"
      ],
      [
        "led",
        "ge"
      ],
      [
        "door",
        "s"
      ],
      [
        "poin",
        "ted"
      ],
      [
        "rem",
        "ain"
      ],
      [
        "stand",
        "ing"
      ],
      [
        "climb",
        "ed"
      ],
      [
        "sli",
        "pped"
      ],
      [
        "lea",
        "ves"
      ],
      [
        "passa",
        "ge"
      ],
      [
        "Will",
        "iam"
      ],
      [
        "ordin",
        "ary"
      ],
      [
        "stra",
        "ight"
      ],
      [
        ".",
        "'"
      ],
      [
        "B",
        "ert"
      ],
      [
        "D",
        "ain"
      ],
      [
        "G",
        "lad"
      ],
      [
        "J",
        "ust"
      ],
      [
        "K",
        "ing"
      ],
      [
        "Q",
        "u"
      ],
      [
        "a",
        "h"
      ],
      [
        "f",
        "ing"
      ],
      [
        "f",
        "ine"
      ],
      [
        "f",
        "lying"
      ],
      [
        "i",
        "re"
      ],
      [
        "k",
        "wood"
      ],
      [
        "l",
        "an"
      ],
      [
        "l",
        "er"
      ],
      [
        "m",
        "ark"
      ],
      [
        "p",
        "ale"
      ],
      [
        "r",
        "ushed"
      ],
      [
        "s",
        "ix"
      ],
      [
        "y",
        "ards"
      ],
      [
        "in",
        "stant"
      ],
      [
        "re",
        "f"
      ],
      [
        "es",
        "pe"
      ],
      [
        "ro",
        "ar"
      ],
      [
        "ac",
        "ty"
      ],
      [
        "ut",
        "es"
      ],
      [
        "li",
        "es"
      ],
      [
        "co",
        "ver"
      ],
      [
        "our",
        "selves"
      ],
      [
        "mo",
        "ved"
      ],
      [
        "sh",
        "ining"
      ],
      [
        "do",
        "ing"
      ],
      [
        "sp",
        "ir"
      ],
      [
        "dr",
        "y"
      ],
      [
        "str",
        "u"
      ],
      [
        "fell",
        "ah"
      ],
      [
        "spe",
        "ct"
      ],
      [
        "hun",
        "g"
      ],
      [
        "sing",
        "le"
      ],
      [
        "mar",
        "ked"
      ],
      [
        "gold",
        "en"
      ],
      [
        "tor",
        "ches"
      ],
      [
        "happ",
        "ened"
      ],
      [
        "sure",
        "ly"
      ],
      [
        "tro",
        "lls"
      ],
      [
        "eas",
        "y"
      ],
      [
        "cir",
        "cle"
      ],
      [
        "od",
        "acty"
      ],
      [
        "barre",
        "ls"
      ],
      [
        "forgot",
        "ten"
      ],
      [
        "posit",
        "ion"
      ],
      [
        "gener",
        "al"
      ],
      [
        "Gre",
        "at"
      ],
      [
        "Mir",
        "kwood"
      ],
      [
        "pter",
        "odacty"
      ],
      [
        "Glad",
        "ys"
      ],
      [
        "C",
        "HA"
      ],
      [
        "I",
        "N"
      ],
      [
        "W",
        "est"
      ],
      [
        "b",
        "ook"
      ],
      [
        "d",
        "im"
      ],
      [
        "p",
        "ap"
      ],
      [
        "t",
        "le"
      ],
      [
        "at",
        "s"
      ],
      [
        "he",
        "a"
      ],
      [
        "is",
        "ten"
      ],
      [
        "st",
        "ri"
      ],
      [
        "me",
        "t"
      ],
      [
        "ti",
        "ve"
      ],
      [
        "ent",
        "r"
      ],
      [
        "sh",
        "ut"
      ],
      [
        "tr",
        "ack"
      ],
      [
        "tr",
        "ust"
      ],
      [
        "com",
        "es"
      ],
      [
        "par",
        "ty"
      ],
      [
        "ear",
        "ly"
      ],
      [
        "ron",
        "d"
      ],
      [
        "tal",
        "king"
      ],
      [
        "star",
        "s"
      ],
      [
        "happ",
        "en"
      ],
      [
        "eag",
        "er"
      ],
      [
        "step",
        "s"
      ],
      [
        "neare",
        "r"
      ],
      [
        "compan",
        "ions"
      ],
      [
        "smo",
        "ke"
      ],
      [
        "lear",
        "ned"
      ],
      [
        "bot",
        "to"
      ],
      [
        "fier",
        "ce"
      ],
      [
        "audi",
        "ence"
      ],
      [
        "E",
        "x"
      ],
      [
        "M",
        "ap"
      ],
      [
        "S",
        "till"
      ],
      [
        "Y",
        "our"
      ],
      [
        "f",
        "ish"
      ],
      [
        "f",
        "aces"
      ],
      [
        "g",
        "ar"
      ],
      [
        "l",
        "eng"
      ],
      [
        "m",
        "aster"
      ],
      [
        "m",
        "iddle"
      ],
      [
        "p",
        "rom"
      ],
      [
        "r",
        "up"
      ],
      [
        "t",
        "ted"
      ],
      [
        "w",
        "est"
      ],
      [
        "z",
        "z"
      ],
      [
        "in",
        "c"
      ],
      [
        "an",
        "ed"
      ],
      [
        "re",
        "ed"
      ],
      [
        "as",
        "e"
      ],
      [
        "is",
        "ted"
      ],
      [
        "le",
        "g"
      ],
      [
        "ro",
        "o"
      ],
      [
        "ro",
        "lled"
      ],
      [
        "ve",
        "l"
      ],
      [
        "li",
        "ked"
      ],
      [
        "for",
        "tun"
      ],
      [
        "ad",
        "mit"
      ],
      [
        "ab",
        "sol"
      ],
      [
        "de",
        "v"
      ],
      [
        "gr",
        "ap"
      ],
      [
        "par",
        "tic"
      ],
      [
        "gu",
        "ards"
      ],
      [
        "des",
        "c"
      ],
      [
        "clo",
        "sed"
      ],
      [
        "sup",
        "per"
      ],
      [
        "wall",
        "s"
      ],
      [
        "bran",
        "ch"
      ],
      [
        "sci",
        "ence"
      ],
      [
        "pleas",
        "ant"
      ],
      [
        "Wh",
        "ite"
      ],
      [
        "dro",
        "pped"
      ],
      [
        "pic",
        "ture"
      ],
      [
        "meet",
        "ing"
      ],
      [
        "poc",
        "ket"
      ],
      [
        "gri",
        "m"
      ],
      [
        "hang",
        "ing"
      ],
      [
        "prison",
        "ers"
      ],
      [
        "exped",
        "ition"
      ],
      [
        "espe",
        "cially"
      ],
      [
        "Map",
        "le"
      ],
      [
        "absol",
        "ute"
      ],
      [
        "E",
        "ast"
      ],
      [
        "H",
        "ill"
      ],
      [
        "b",
        "ound"
      ],
      [
        "c",
        "orn"
      ],
      [
        "e",
        "z"
      ],
      [
        "i",
        "gh"
      ],
      [
        "o",
        "es"
      ],
      [
        "p",
        "or"
      ],
      [
        "p",
        "ull"
      ],
      [
        "r",
        "aid"
      ],
      [
        "s",
        "y"
      ],
      [
        "t",
        "wi"
      ],
      [
        "t",
        "ched"
      ],
      [
        "w",
        "ise"
      ],
      [
        "th",
        "ous"
      ],
      [
        "re",
        "l"
      ],
      [
        "as",
        "c"
      ],
      [
        "to",
        "ry"
      ],
      [
        "or",
        "ge"
      ],
      [
        "st",
        "uck"
      ],
      [
        "st",
        "ud"
      ],
      [
        "me",
        "ans"
      ],
      [
        "ac",
        "le"
      ],
      [
        "un",
        "ning"
      ],
      [
        "un",
        "known"
      ],
      [
        "ce",
        "i"
      ],
      [
        "am",
        "bo"
      ],
      [
        "ter",
        "ing"
      ],
      [
        "gre",
        "y"
      ],
      [
        "ap",
        "pro"
      ],
      [
        "ex",
        "press"
      ],
      [
        "see",
        "ms"
      ],
      [
        "sp",
        "ider"
      ],
      [
        "im",
        "possible"
      ],
      [
        "tion",
        "s"
      ],
      [
        "cre",
        "pt"
      ],
      [
        "aw",
        "are"
      ],
      [
        "sto",
        "ry"
      ],
      [
        "dragon",
        "s"
      ],
      [
        "Be",
        "fore"
      ],
      [
        "sha",
        "pe"
      ],
      [
        "rem",
        "ained"
      ],
      [
        "nor",
        "th"
      ],
      [
        "ste",
        "ad"
      ],
      [
        "ste",
        "ep"
      ],
      [
        "sk",
        "in"
      ],
      [
        "bur",
        "glar"
      ],
      [
        "hur",
        "ried"
      ],
      [
        "esca",
        "ped"
      ],
      [
        "El",
        "rond"
      ],
      [
        "gent",
        "le"
      ],
      [
        "tru",
        "th"
      ],
      [
        "sme",
        "ll"
      ],
      [
        "partic",
        "ular"
      ],
      [
        "thous",
        "and"
      ],
      [
        "A",
        "m"
      ],
      [
        "D",
        "r"
      ],
      [
        "L",
        "on"
      ],
      [
        "R",
        "e"
      ],
      [
        "T",
        "om"
      ],
      [
        "W",
        "ar"
      ],
      [
        "Z",
        "ambo"
      ],
      [
        "a",
        "x"
      ],
      [
        "e",
        "cho"
      ],
      [
        "g",
        "as"
      ],
      [
        "g",
        "az"
      ],
      [
        "l",
        "in"
      ],
      [
        "m",
        "ut"
      ],
      [
        "m",
        "ad"
      ],
      [
        "p",
        "ho"
      ],
      [
        "p",
        "ushed"
      ],
      [
        "s",
        "qu"
      ],
      [
        "s",
        "que"
      ],
      [
        "t",
        "ale"
      ],
      [
        "v",
        "ar"
      ],
      [
        "ar",
        "med"
      ],
      [
        "id",
        "ed"
      ],
      [
        "ve",
        "lo"
      ],
      [
        "for",
        "med"
      ],
      [
        "oo",
        "l"
      ],
      [
        "ke",
        "y"
      ],
      [
        "lo",
        "in"
      ],
      [
        "some",
        "times"
      ],
      [
        "do",
        "z"
      ],
      [
        "pl",
        "ay"
      ],
      [
        "fi",
        "res"
      ],
      [
        "war",
        "m"
      ],
      [
        "sp",
        "ite"
      ],
      [
        "sp",
        "rang"
      ],
      [
        "tre",
        "m"
      ],
      [
        "mer",
        "ry"
      ],
      [
        "low",
        "er"
      ],
      [
        "dis",
        "covered"
      ],
      [
        "turn",
        "ing"
      ],
      [
        "che",
        "st"
      ],
      [
        "gl",
        "ing"
      ],
      [
        "fl",
        "es"
      ],
      [
        "vo",
        "ices"
      ],
      [
        "bre",
        "ed"
      ],
      [
        "thre",
        "w"
      ],
      [
        "jo",
        "y"
      ],
      [
        "quick",
        "ly"
      ],
      [
        "wal",
        "ked"
      ],
      [
        "cu",
        "ri"
      ],
      [
        "ye",
        "llow"
      ],
      [
        "appear",
        "ance"
      ],
      [
        "El",
        "ven"
      ],
      [
        "kill",
        "ed"
      ],
      [
        "Ameri",
        "ca"
      ],
      [
        "pow",
        "er"
      ],
      [
        "gloo",
        "m"
      ],
      [
        "Per",
        "haps"
      ],
      [
        "emp",
        "ty"
      ],
      [
        "botto",
        "m"
      ],
      [
        "leng",
        "th"
      ],
      [
        "Lon",
        "don"
      ],
      [
        "E",
        "ag"
      ],
      [
        "G",
        "loin"
      ],
      [
        "M",
        "ay"
      ],
      [
        "T",
        "ook"
      ],
      [
        "c",
        "ord"
      ],
      [
        "g",
        "ing"
      ],
      [
        "l",
        "isten"
      ],
      [
        "m",
        "ain"
      ],
      [
        "o",
        "s"
      ],
      [
        "p",
        "ping"
      ],
      [
        "r",
        "ate"
      ],
      [
        "s",
        "us"
      ],
      [
        "s",
        "ne"
      ],
      [
        "s",
        "outh"
      ],
      [
        "t",
        "ail"
      ],
      [
        "w",
        "ished"
      ],
      [
        "in",
        "king"
      ],
      [
        "to",
        "ri"
      ],
      [
        "ll",
        "ent"
      ],
      [
        "st",
        "ate"
      ],
      [
        "me",
        "mor"
      ],
      [
        "be",
        "come"
      ],
      [
        "id",
        "ing"
      ],
      [
        "ac",
        "ter"
      ],
      [
        "no",
        "ti"
      ],
      [
        "ch",
        "ang"
      ],
      [
        "un",
        "less"
      ],
      [
        "oo",
        "log"
      ],
      [
        "ent",
        "s"
      ],
      [
        "am",
        "ed"
      ],
      [
        "pe",
        "red"
      ],
      [
        "de",
        "c"
      ],
      [
        "de",
        "light"
      ],
      [
        "de",
        "ath"
      ],
      [
        "ck",
        "ing"
      ],
      [
        "pl",
        "ans"
      ],
      [
        "ap",
        "s"
      ],
      [
        "ous",
        "ly"
      ],
      [
        "hall",
        "s"
      ],
      [
        "gr",
        "and"
      ],
      [
        "con",
        "v"
      ],
      [
        "com",
        "ple"
      ],
      [
        "who",
        "m"
      ],
      [
        "dr",
        "ink"
      ],
      [
        "str",
        "uck"
      ],
      [
        "cr",
        "ow"
      ],
      [
        "ci",
        "ent"
      ],
      [
        "pro",
        "ceed"
      ],
      [
        "cl",
        "oud"
      ],
      [
        "should",
        "er"
      ],
      [
        "should",
        "ers"
      ],
      [
        "ct",
        "ure"
      ],
      [
        "went",
        "y"
      ],
      [
        "hap",
        "ter"
      ],
      [
        "pr",
        "ise"
      ],
      [
        "mor",
        "row"
      ],
      [
        "act",
        "ly"
      ],
      [
        "act",
        "ually"
      ],
      [
        "cour",
        "age"
      ],
      [
        "ser",
        "vice"
      ],
      [
        "stre",
        "ng"
      ],
      [
        "dre",
        "ss"
      ],
      [
        "sho",
        "re"
      ],
      [
        "att",
        "ack"
      ],
      [
        "happ",
        "y"
      ],
      [
        "reme",
        "m"
      ],
      [
        "thin",
        "king"
      ],
      [
        "foo",
        "l"
      ],
      [
        "cliff",
        "s"
      ],
      [
        "bur",
        "st"
      ],
      [
        "hur",
        "ry"
      ],
      [
        "person",
        "al"
      ],
      [
        "slo",
        "pe"
      ],
      [
        "coll",
        "e"
      ],
      [
        "Fo",
        "rest"
      ],
      [
        "pret",
        "ty"
      ],
      [
        "consider",
        "able"
      ],
      [
        "En",
        "gl"
      ],
      [
        "pap",
        "er"
      ],
      [
        "grap",
        "h"
      ],
      [
        "Elven",
        "king"
      ],
      [
        "I",
        "s"
      ],
      [
        "O",
        "ut"
      ],
      [
        "a",
        "ked"
      ],
      [
        "b",
        "lo"
      ],
      [
        "d",
        "est"
      ],
      [
        "h",
        "ast"
      ],
      [
        "i",
        "b"
      ],
      [
        "k",
        "ne"
      ],
      [
        "m",
        "ine"
      ],
      [
        "n",
        "ature"
      ],
      [
        "p",
        "ort"
      ],
      [
        "s",
        "ou"
      ],
      [
        "s",
        "ummer"
      ],
      [
        "s",
        "ense"
      ],
      [
        "t",
        "wenty"
      ],
      [
        "w",
        "anted"
      ],
      [
        "the",
        "s"
      ],
      [
        "in",
        "t"
      ],
      [
        "an",
        "ces"
      ],
      [
        "er",
        "able"
      ],
      [
        "it",
        "ions"
      ],
      [
        "le",
        "cture"
      ],
      [
        "we",
        "ary"
      ],
      [
        "ro",
        "of"
      ],
      [
        "no",
        "tic"
      ],
      [
        "al",
        "ed"
      ],
      [
        "ch",
        "ange"
      ],
      [
        "li",
        "ving"
      ],
      [
        "ti",
        "red"
      ],
      [
        "oo",
        "th"
      ],
      [
        "ho",
        "st"
      ],
      [
        "bo",
        "x"
      ],
      [
        "fe",
        "ast"
      ],
      [
        "are",
        "well"
      ],
      [
        "sh",
        "ook"
      ],
      [
        "bl",
        "ood"
      ],
      [
        "ust",
        "ed"
      ],
      [
        "br",
        "ain"
      ],
      [
        "su",
        "gg"
      ],
      [
        "who",
        "se"
      ],
      [
        "--",
        "\""
      ],
      [
        "pre",
        "s"
      ],
      [
        "dis",
        "cus"
      ],
      [
        "pro",
        "per"
      ],
      [
        "wor",
        "se"
      ],
      [
        "sm",
        "ile"
      ],
      [
        "sto",
        "res"
      ],
      [
        "bre",
        "ath"
      ],
      [
        "might",
        "y"
      ],
      [
        "sur",
        "face"
      ],
      [
        "bro",
        "ad"
      ],
      [
        "bro",
        "ke"
      ],
      [
        "comp",
        "any"
      ],
      [
        "exce",
        "llent"
      ],
      [
        "diffic",
        "ul"
      ],
      [
        "scr",
        "am"
      ],
      [
        "neare",
        "st"
      ],
      [
        "poc",
        "kets"
      ],
      [
        "Gobl",
        "in"
      ],
      [
        "corn",
        "er"
      ],
      [
        "noti",
        "ce"
      ],
      [
        "remem",
        "bered"
      ],
      [
        "B",
        "of"
      ],
      [
        "D",
        "w"
      ],
      [
        "U",
        "p"
      ],
      [
        "a",
        "head"
      ],
      [
        "d",
        "in"
      ],
      [
        "e",
        "ch"
      ],
      [
        "g",
        "ain"
      ],
      [
        "h",
        "ide"
      ],
      [
        "j",
        "umped"
      ],
      [
        "l",
        "ater"
      ],
      [
        "m",
        "ur"
      ],
      [
        "n",
        "al"
      ],
      [
        "p",
        "en"
      ],
      [
        "p",
        "it"
      ],
      [
        "s",
        "end"
      ],
      [
        "s",
        "cre"
      ],
      [
        "s",
        "ket"
      ],
      [
        "s",
        "ides"
      ],
      [
        "u",
        "g"
      ],
      [
        "v",
        "ast"
      ],
      [
        "th",
        "ird"
      ],
      [
        "re",
        "e"
      ],
      [
        "on",
        "y"
      ],
      [
        "as",
        "leep"
      ],
      [
        "ar",
        "ri"
      ],
      [
        "ha",
        "bit"
      ],
      [
        "le",
        "ather"
      ],
      [
        "we",
        "ek"
      ],
      [
        "ut",
        "ion"
      ],
      [
        "mo",
        "tion"
      ],
      [
        "one",
        "ly"
      ],
      [
        "de",
        "p"
      ],
      [
        "um",
        "bling"
      ],
      [
        "if",
        "f"
      ],
      [
        "ex",
        "tra"
      ],
      [
        "fi",
        "ed"
      ],
      [
        "br",
        "ush"
      ],
      [
        "sp",
        "ent"
      ],
      [
        "your",
        "self"
      ],
      [
        "man",
        "aged"
      ],
      [
        "than",
        "k"
      ],
      [
        "light",
        "s"
      ],
      [
        "ak",
        "es"
      ],
      [
        "per",
        "fect"
      ],
      [
        "spe",
        "c"
      ],
      [
        "hun",
        "gry"
      ],
      [
        "Mountain",
        "s"
      ],
      [
        "sing",
        "ing"
      ],
      [
        "tal",
        "es"
      ],
      [
        "fall",
        "ing"
      ],
      [
        "sur",
        "pris"
      ],
      [
        "wr",
        "ong"
      ],
      [
        "hundred",
        "s"
      ],
      [
        "inter",
        "rup"
      ],
      [
        "draw",
        "n"
      ],
      [
        "show",
        "ed"
      ],
      [
        "char",
        "acter"
      ],
      [
        "hour",
        "s"
      ],
      [
        "ris",
        "ing"
      ],
      [
        "Ameri",
        "can"
      ],
      [
        "num",
        "ber"
      ],
      [
        "add",
        "ed"
      ],
      [
        "exc",
        "ite"
      ],
      [
        "aze",
        "ment"
      ],
      [
        "fif",
        "ty"
      ],
      [
        "entr",
        "ance"
      ],
      [
        "Eag",
        "les"
      ],
      [
        "crow",
        "d"
      ],
      [
        "Bof",
        "ur"
      ],
      [
        "Dw",
        "alin"
      ],
      [
        "D",
        "id"
      ],
      [
        "G",
        "e"
      ],
      [
        "O",
        "r"
      ],
      [
        "S",
        "he"
      ],
      [
        "c",
        "al"
      ],
      [
        "d",
        "ur"
      ],
      [
        "d",
        "aw"
      ],
      [
        "d",
        "ared"
      ],
      [
        "e",
        "ast"
      ],
      [
        "f",
        "a"
      ],
      [
        "f",
        "ted"
      ],
      [
        "g",
        "low"
      ],
      [
        "i",
        "e"
      ],
      [
        "k",
        "es"
      ],
      [
        "k",
        "no"
      ],
      [
        "l",
        "ist"
      ],
      [
        "p",
        "h"
      ],
      [
        "r",
        "age"
      ],
      [
        "s",
        "ang"
      ],
      [
        "t",
        "ang"
      ],
      [
        "ll",
        "y"
      ],
      [
        "st",
        "ro"
      ],
      [
        "st",
        "uff"
      ],
      [
        "we",
        "ar"
      ],
      [
        "we",
        "alth"
      ],
      [
        "wi",
        "cked"
      ],
      [
        "li",
        "ves"
      ],
      [
        "ad",
        "v"
      ],
      [
        "un",
        "comfortable"
      ],
      [
        "ri",
        "es"
      ],
      [
        "ri",
        "ch"
      ],
      [
        "ent",
        "ly"
      ],
      [
        "am",
        "azement"
      ],
      [
        "pl",
        "at"
      ],
      [
        "ind",
        "ic"
      ],
      [
        "any",
        "one"
      ],
      [
        "ap",
        "ping"
      ],
      [
        "by",
        "e"
      ],
      [
        "su",
        "c"
      ],
      [
        "com",
        "rad"
      ],
      [
        "af",
        "raid"
      ],
      [
        "dis",
        "appeared"
      ],
      [
        "thr",
        "ow"
      ],
      [
        "cl",
        "am"
      ],
      [
        "med",
        "i"
      ],
      [
        "In",
        "deed"
      ],
      [
        "fl",
        "at"
      ],
      [
        "thought",
        "s"
      ],
      [
        "say",
        "ing"
      ],
      [
        "agg",
        "ed"
      ],
      [
        "sur",
        "prise"
      ],
      [
        "pon",
        "y"
      ],
      [
        "sc",
        "attered"
      ],
      [
        "spo",
        "t"
      ],
      [
        "enti",
        "rely"
      ],
      [
        "comfor",
        "t"
      ],
      [
        "lau",
        "ghter"
      ],
      [
        "van",
        "ished"
      ],
      [
        "animal",
        "s"
      ],
      [
        "nat",
        "ur"
      ],
      [
        "pick",
        "ed"
      ],
      [
        "experi",
        "ence"
      ],
      [
        "War",
        "gs"
      ],
      [
        "comple",
        "te"
      ],
      [
        "streng",
        "th"
      ],
      [
        "Ge",
        "orge"
      ],
      [
        "comrad",
        "es"
      ],
      [
        "A",
        "ny"
      ],
      [
        "B",
        "if"
      ],
      [
        "C",
        "hapter"
      ],
      [
        "E",
        "very"
      ],
      [
        "L",
        "ong"
      ],
      [
        "M",
        "is"
      ],
      [
        "O",
        "in"
      ],
      [
        "S",
        "ure"
      ],
      [
        "U",
        "n"
      ],
      [
        "W",
        "ald"
      ],
      [
        "Y",
        "et"
      ],
      [
        "b",
        "at"
      ],
      [
        "e",
        "re"
      ],
      [
        "f",
        "it"
      ],
      [
        "i",
        "an"
      ],
      [
        "m",
        "ess"
      ],
      [
        "n",
        "ice"
      ],
      [
        "s",
        "um"
      ],
      [
        "w",
        "ound"
      ],
      [
        "re",
        "spect"
      ],
      [
        "at",
        "ten"
      ],
      [
        "to",
        "es"
      ],
      [
        "to",
        "graph"
      ],
      [
        "we",
        "ap"
      ],
      [
        "hi",
        "lls"
      ],
      [
        "ve",
        "get"
      ],
      [
        "no",
        "se"
      ],
      [
        "all",
        "ow"
      ],
      [
        "so",
        "le"
      ],
      [
        "sa",
        "ur"
      ],
      [
        "not",
        "e"
      ],
      [
        "co",
        "at"
      ],
      [
        "co",
        "lo"
      ],
      [
        "ne",
        "ither"
      ],
      [
        "go",
        "es"
      ],
      [
        "po",
        "st"
      ],
      [
        "con",
        "tent"
      ],
      [
        "great",
        "er"
      ],
      [
        "bit",
        "ter"
      ],
      [
        "men",
        "tion"
      ],
      [
        "know",
        "s"
      ],
      [
        "know",
        "ledge"
      ],
      [
        "wat",
        "ching"
      ],
      [
        "wood",
        "en"
      ],
      [
        "sto",
        "r"
      ],
      [
        "des",
        "ire"
      ],
      [
        "won",
        "dered"
      ],
      [
        "every",
        "thing"
      ],
      [
        "clo",
        "thes"
      ],
      [
        "bus",
        "y"
      ],
      [
        "dist",
        "ant"
      ],
      [
        "poss",
        "ess"
      ],
      [
        "ken",
        "stone"
      ],
      [
        "idd",
        "en"
      ],
      [
        "cri",
        "es"
      ],
      [
        "pleas",
        "e"
      ],
      [
        "kind",
        "ly"
      ],
      [
        "question",
        "s"
      ],
      [
        "bank",
        "s"
      ],
      [
        "ev",
        "idence"
      ],
      [
        "whis",
        "pered"
      ],
      [
        "que",
        "er"
      ],
      [
        "fre",
        "sh"
      ],
      [
        "lea",
        "ving"
      ],
      [
        "imag",
        "ine"
      ],
      [
        "Ar",
        "kenstone"
      ],
      [
        "cat",
        "ch"
      ],
      [
        "pin",
        "n"
      ],
      [
        "trun",
        "k"
      ],
      [
        "monstr",
        "ous"
      ],
      [
        "gli",
        "mp"
      ],
      [
        "pterodacty",
        "l"
      ],
      [
        "pho",
        "tograph"
      ],
      [
        "chang",
        "ed"
      ],
      [
        "excite",
        "ment"
      ],
      [
        "plat",
        "form"
      ],
      [
        "Bif",
        "ur"
      ],
      [
        "Wald",
        "ron"
      ],
      [
        "A",
        "n"
      ],
      [
        "D",
        "o"
      ],
      [
        "E",
        "S"
      ],
      [
        "E",
        "s"
      ],
      [
        "L",
        "L"
      ],
      [
        "O",
        "h"
      ],
      [
        "T",
        "ER"
      ],
      [
        "W",
        "ood"
      ],
      [
        "b",
        "or"
      ],
      [
        "b",
        "ull"
      ],
      [
        "b",
        "und"
      ],
      [
        "f",
        "un"
      ],
      [
        "f",
        "aint"
      ],
      [
        "g",
        "ame"
      ],
      [
        "l",
        "u"
      ],
      [
        "m",
        "us"
      ],
      [
        "m",
        "ies"
      ],
      [
        "o",
        "don"
      ],
      [
        "p",
        "u"
      ],
      [
        "r",
        "ush"
      ],
      [
        "s",
        "and"
      ],
      [
        "s",
        "of"
      ],
      [
        "s",
        "imp"
      ],
      [
        "u",
        "ation"
      ],
      [
        "x",
        "ed"
      ],
      [
        "th",
        "s"
      ],
      [
        "th",
        "ir"
      ],
      [
        "th",
        "under"
      ],
      [
        "an",
        "cient"
      ],
      [
        "as",
        "m"
      ],
      [
        "ed",
        "ing"
      ],
      [
        "en",
        "ch"
      ],
      [
        "en",
        "ces"
      ],
      [
        "is",
        "ts"
      ],
      [
        "ar",
        "rows"
      ],
      [
        "be",
        "at"
      ],
      [
        "ro",
        "pes"
      ],
      [
        "al",
        "s"
      ],
      [
        "ad",
        "ed"
      ],
      [
        "ter",
        "ri"
      ],
      [
        "ca",
        "ver"
      ],
      [
        "de",
        "li"
      ],
      [
        "ck",
        "s"
      ],
      [
        "um",
        "n"
      ],
      [
        "sh",
        "one"
      ],
      [
        "lo",
        "ts"
      ],
      [
        "end",
        "s"
      ],
      [
        "ex",
        "pl"
      ],
      [
        "com",
        "mon"
      ],
      [
        "sp",
        "read"
      ],
      [
        "what",
        "ever"
      ],
      [
        "cr",
        "aw"
      ],
      [
        "cr",
        "ash"
      ],
      [
        "wo",
        "ke"
      ],
      [
        "ak",
        "s"
      ],
      [
        "pro",
        "b"
      ],
      [
        "after",
        "wards"
      ],
      [
        "gl",
        "ade"
      ],
      [
        "aw",
        "s"
      ],
      [
        "sm",
        "ooth"
      ],
      [
        "sto",
        "p"
      ],
      [
        "hel",
        "ped"
      ],
      [
        "star",
        "t"
      ],
      [
        "chi",
        "ld"
      ],
      [
        "lar",
        "ger"
      ],
      [
        "On",
        "ly"
      ],
      [
        "cent",
        "er"
      ],
      [
        "pi",
        "pe"
      ],
      [
        "four",
        "teen"
      ],
      [
        "pleas",
        "ed"
      ],
      [
        "imp",
        "ort"
      ],
      [
        "ub",
        "lic"
      ],
      [
        "nat",
        "ives"
      ],
      [
        "Al",
        "so"
      ],
      [
        "compan",
        "ion"
      ],
      [
        "dream",
        "s"
      ],
      [
        "lead",
        "ing"
      ],
      [
        "wand",
        "ering"
      ],
      [
        "beast",
        "s"
      ],
      [
        "laugh",
        "ing"
      ],
      [
        "incl",
        "ined"
      ],
      [
        "notic",
        "ed"
      ],
      [
        "pinn",
        "acle"
      ],
      [
        "M",
        "c"
      ],
      [
        "P",
        "o"
      ],
      [
        "P",
        "TER"
      ],
      [
        "W",
        "hi"
      ],
      [
        "b",
        "one"
      ],
      [
        "b",
        "ones"
      ],
      [
        "c",
        "ou"
      ],
      [
        "c",
        "up"
      ],
      [
        "c",
        "ts"
      ],
      [
        "d",
        "le"
      ],
      [
        "e",
        "vent"
      ],
      [
        "f",
        "an"
      ],
      [
        "g",
        "ather"
      ],
      [
        "m",
        "n"
      ],
      [
        "p",
        "an"
      ],
      [
        "p",
        "air"
      ],
      [
        "p",
        "ublic"
      ],
      [
        "r",
        "id"
      ],
      [
        "s",
        "ick"
      ],
      [
        "s",
        "hel"
      ],
      [
        "t",
        "u"
      ],
      [
        "v",
        "ill"
      ],
      [
        "w",
        "in"
      ],
      [
        "w",
        "is"
      ],
      [
        "y",
        "er"
      ],
      [
        "st",
        "iff"
      ],
      [
        "be",
        "ards"
      ],
      [
        "we",
        "ight"
      ],
      [
        "was",
        "te"
      ],
      [
        "se",
        "arch"
      ],
      [
        "hi",
        "on"
      ],
      [
        "ac",
        "ed"
      ],
      [
        "no",
        "is"
      ],
      [
        "ut",
        "s"
      ],
      [
        "ti",
        "es"
      ],
      [
        "sa",
        "ge"
      ],
      [
        "oo",
        "t"
      ],
      [
        "ho",
        "les"
      ],
      [
        "am",
        "ing"
      ],
      [
        "bo",
        "y"
      ],
      [
        "one",
        "y"
      ],
      [
        "us",
        "ual"
      ],
      [
        "um",
        "ent"
      ],
      [
        "are",
        "n"
      ],
      [
        "if",
        "ic"
      ],
      [
        "ap",
        "id"
      ],
      [
        "ex",
        "ha"
      ],
      [
        "ven",
        "s"
      ],
      [
        "com",
        "m"
      ],
      [
        "sp",
        "ark"
      ],
      [
        "hor",
        "ror"
      ],
      [
        "thr",
        "ust"
      ],
      [
        "hand",
        "ed"
      ],
      [
        "wat",
        "ers"
      ],
      [
        "dd",
        "y"
      ],
      [
        "des",
        "per"
      ],
      [
        "res",
        "ult"
      ],
      [
        "poin",
        "ting"
      ],
      [
        "az",
        "on"
      ],
      [
        "sit",
        "uation"
      ],
      [
        "tor",
        "ch"
      ],
      [
        "aster",
        "n"
      ],
      [
        "poss",
        "ib"
      ],
      [
        "Th",
        "ror"
      ],
      [
        "Th",
        "rain"
      ],
      [
        "fle",
        "w"
      ],
      [
        "min",
        "utes"
      ],
      [
        "climb",
        "ing"
      ],
      [
        "ev",
        "ident"
      ],
      [
        "oc",
        "cur"
      ],
      [
        "care",
        "fully"
      ],
      [
        "eas",
        "ily"
      ],
      [
        "passa",
        "ges"
      ],
      [
        "barre",
        "l"
      ],
      [
        "cross",
        "ed"
      ],
      [
        "sor",
        "ry"
      ],
      [
        "fright",
        "ened"
      ],
      [
        "remark",
        "able"
      ],
      [
        "Ar",
        "dle"
      ],
      [
        "leap",
        "ed"
      ],
      [
        "descri",
        "bed"
      ],
      [
        "pur",
        "su"
      ],
      [
        "trun",
        "ks"
      ],
      [
        "sub",
        "ject"
      ],
      [
        "tee",
        "th"
      ],
      [
        "contin",
        "u"
      ],
      [
        "CHA",
        "PTER"
      ],
      [
        "dev",
        "il"
      ],
      [
        "absolute",
        "ly"
      ],
      [
        "cei",
        "ved"
      ],
      [
        "Am",
        "azon"
      ],
      [
        "var",
        "ious"
      ],
      [
        "extra",
        "ordinary"
      ],
      [
        "perfect",
        "ly"
      ],
      [
        "surpris",
        "ed"
      ],
      [
        "dur",
        "ing"
      ],
      [
        "daw",
        "n"
      ],
      [
        "list",
        "ened"
      ],
      [
        "sole",
        "mn"
      ],
      [
        "colo",
        "red"
      ],
      [
        "simp",
        "ly"
      ],
      [
        "Mc",
        "Ardle"
      ],
      [
        "!",
        "'"
      ],
      [
        "L",
        "and"
      ],
      [
        "O",
        "N"
      ],
      [
        "b",
        "s"
      ],
      [
        "b",
        "ers"
      ],
      [
        "c",
        "ast"
      ],
      [
        "d",
        "ar"
      ],
      [
        "e",
        "ks"
      ],
      [
        "f",
        "as"
      ],
      [
        "f",
        "ut"
      ],
      [
        "f",
        "led"
      ],
      [
        "h",
        "idden"
      ],
      [
        "j",
        "ob"
      ],
      [
        "m",
        "ile"
      ],
      [
        "p",
        "ain"
      ],
      [
        "p",
        "tion"
      ],
      [
        "r",
        "al"
      ],
      [
        "r",
        "ab"
      ],
      [
        "r",
        "ative"
      ],
      [
        "r",
        "apid"
      ],
      [
        "t",
        "ling"
      ],
      [
        "u",
        "an"
      ],
      [
        "u",
        "de"
      ],
      [
        "v",
        "ic"
      ],
      [
        "v",
        "ish"
      ],
      [
        "th",
        "us"
      ],
      [
        "in",
        "v"
      ],
      [
        "in",
        "ation"
      ],
      [
        "an",
        "ger"
      ],
      [
        "re",
        "sp"
      ],
      [
        "or",
        "ous"
      ],
      [
        "ar",
        "ound"
      ],
      [
        "ar",
        "row"
      ],
      [
        "es",
        "ted"
      ],
      [
        "it",
        "ing"
      ],
      [
        "hi",
        "p"
      ],
      [
        "al",
        "together"
      ],
      [
        "his",
        "sed"
      ],
      [
        "li",
        "z"
      ],
      [
        "for",
        "d"
      ],
      [
        "un",
        "expected"
      ],
      [
        "ag",
        "s"
      ],
      [
        "il",
        "t"
      ],
      [
        "ab",
        "bed"
      ],
      [
        "po",
        "sed"
      ],
      [
        "gre",
        "ss"
      ],
      [
        "end",
        "ous"
      ],
      [
        "ex",
        "ist"
      ],
      [
        "qu",
        "ar"
      ],
      [
        "sp",
        "ur"
      ],
      [
        "im",
        "medi"
      ],
      [
        "el",
        "s"
      ],
      [
        "light",
        "ning"
      ],
      [
        "pro",
        "du"
      ],
      [
        "cl",
        "ass"
      ],
      [
        "di",
        "ed"
      ],
      [
        "vi",
        "ol"
      ],
      [
        "shall",
        "ow"
      ],
      [
        "wa",
        "ving"
      ],
      [
        "call",
        "ing"
      ],
      [
        "high",
        "er"
      ],
      [
        "try",
        "ing"
      ],
      [
        "mis",
        "sion"
      ],
      [
        "mis",
        "erable"
      ],
      [
        "small",
        "er"
      ],
      [
        "ren",
        "t"
      ],
      [
        "On",
        "ce"
      ],
      [
        "ene",
        "mies"
      ],
      [
        "eag",
        "les"
      ],
      [
        "sign",
        "s"
      ],
      [
        "cond",
        "itions"
      ],
      [
        "wal",
        "k"
      ],
      [
        "wal",
        "king"
      ],
      [
        "cu",
        "liar"
      ],
      [
        "rep",
        "ort"
      ],
      [
        "nar",
        "rative"
      ],
      [
        "quiet",
        "ly"
      ],
      [
        "fre",
        "e"
      ],
      [
        "imag",
        "ined"
      ],
      [
        "swe",
        "pt"
      ],
      [
        "gun",
        "s"
      ],
      [
        "bu",
        "ilt"
      ],
      [
        "tou",
        "ch"
      ],
      [
        "pie",
        "ce"
      ],
      [
        "trave",
        "l"
      ],
      [
        "pull",
        "ed"
      ],
      [
        "memor",
        "y"
      ],
      [
        "pres",
        "ence"
      ],
      [
        "sket",
        "ch"
      ],
      [
        "spec",
        "im"
      ],
      [
        "Mis",
        "ty"
      ],
      [
        "Sure",
        "ly"
      ],
      [
        "fas",
        "hion"
      ],
      [
        "rab",
        "bit"
      ],
      [
        "C",
        "ur"
      ],
      [
        "E",
        "N"
      ],
      [
        "O",
        "U"
      ],
      [
        "O",
        "ld"
      ],
      [
        "P",
        "re"
      ],
      [
        "S",
        "t"
      ],
      [
        "Z",
        "oolog"
      ],
      [
        "b",
        "ac"
      ],
      [
        "b",
        "all"
      ],
      [
        "b",
        "ri"
      ],
      [
        "f",
        "ly"
      ],
      [
        "f",
        "ail"
      ],
      [
        "f",
        "av"
      ],
      [
        "g",
        "ates"
      ],
      [
        "l",
        "a"
      ],
      [
        "l",
        "ord"
      ],
      [
        "m",
        "ing"
      ],
      [
        "m",
        "ass"
      ],
      [
        "m",
        "ist"
      ],
      [
        "o",
        "saur"
      ],
      [
        "p",
        "ine"
      ],
      [
        "s",
        "im"
      ],
      [
        "s",
        "ens"
      ],
      [
        "t",
        "ly"
      ],
      [
        "t",
        "ong"
      ],
      [
        "t",
        "est"
      ],
      [
        "w",
        "ing"
      ],
      [
        "y",
        "ear"
      ],
      [
        "in",
        "ion"
      ],
      [
        "he",
        "sit"
      ],
      [
        "ing",
        "ing"
      ],
      [
        "ar",
        "g"
      ],
      [
        "ar",
        "gu"
      ],
      [
        "ha",
        "ven"
      ],
      [
        "st",
        "ir"
      ],
      [
        "me",
        "rely"
      ],
      [
        "we",
        "t"
      ],
      [
        "se",
        "ized"
      ],
      [
        "ro",
        "ll"
      ],
      [
        "ac",
        "c"
      ],
      [
        "no",
        "on"
      ],
      [
        "ver",
        "ing"
      ],
      [
        "for",
        "get"
      ],
      [
        "ad",
        "van"
      ],
      [
        "ad",
        "dress"
      ],
      [
        "ri",
        "fles"
      ],
      [
        "oo",
        "king"
      ],
      [
        "ce",
        "ll"
      ],
      [
        "ho",
        "ard"
      ],
      [
        "us",
        "ion"
      ],
      [
        "pe",
        "culiar"
      ],
      [
        "ther",
        "n"
      ],
      [
        "de",
        "f"
      ],
      [
        "po",
        "l"
      ],
      [
        "bl",
        "ind"
      ],
      [
        "some",
        "where"
      ],
      [
        "ex",
        "am"
      ],
      [
        "tr",
        "id"
      ],
      [
        "can",
        "oes"
      ],
      [
        "hor",
        "se"
      ],
      [
        "your",
        "s"
      ],
      [
        "man",
        "ner"
      ],
      [
        "pre",
        "p"
      ],
      [
        "op",
        "inion"
      ],
      [
        "cr",
        "own"
      ],
      [
        "ci",
        "al"
      ],
      [
        "cre",
        "ep"
      ],
      [
        "ig",
        "uan"
      ],
      [
        "gl",
        "ass"
      ],
      [
        "spe",
        "ars"
      ],
      [
        "No",
        "thing"
      ],
      [
        "car",
        "trid"
      ],
      [
        "hear",
        "ts"
      ],
      [
        "rock",
        "y"
      ],
      [
        "sha",
        "king"
      ],
      [
        "ef",
        "for"
      ],
      [
        "path",
        "s"
      ],
      [
        "clear",
        "ing"
      ],
      [
        "sound",
        "ed"
      ],
      [
        "wait",
        "ed"
      ],
      [
        "fair",
        "ly"
      ],
      [
        "draw",
        "ing"
      ],
      [
        "grow",
        "ing"
      ],
      [
        "ris",
        "k"
      ],
      [
        "flow",
        "ers"
      ],
      [
        "vol",
        "can"
      ],
      [
        "Gobl",
        "ins"
      ],
      [
        "col",
        "or"
      ],
      [
        "wel",
        "ve"
      ],
      [
        "tem",
        "pt"
      ],
      [
        "twi",
        "ce"
      ],
      [
        "doz",
        "en"
      ],
      [
        "brush",
        "wood"
      ],
      [
        "weap",
        "ons"
      ],
      [
        "occur",
        "red"
      ],
      [
        "fut",
        "ure"
      ],
      [
        "iguan",
        "odon"
      ],
      [
        "A",
        "R"
      ],
      [
        "B",
        "r"
      ],
      [
        "C",
        "om"
      ],
      [
        "D",
        "e"
      ],
      [
        "H",
        "ad"
      ],
      [
        "L",
        "ook"
      ],
      [
        "N",
        "ever"
      ],
      [
        "N",
        "ature"
      ],
      [
        "N",
        "ori"
      ],
      [
        "O",
        "ak"
      ],
      [
        "R",
        "unning"
      ],
      [
        "b",
        "as"
      ],
      [
        "b",
        "ent"
      ],
      [
        "b",
        "am"
      ],
      [
        "e",
        "ight"
      ],
      [
        "e",
        "mer"
      ],
      [
        "e",
        "astern"
      ],
      [
        "i",
        "th"
      ],
      [
        "i",
        "al"
      ],
      [
        "j",
        "ud"
      ],
      [
        "k",
        "ick"
      ],
      [
        "l",
        "ted"
      ],
      [
        "p",
        "rof"
      ],
      [
        "p",
        "uff"
      ],
      [
        "r",
        "af"
      ],
      [
        "s",
        "en"
      ],
      [
        "s",
        "now"
      ],
      [
        "s",
        "car"
      ],
      [
        "v",
        "ain"
      ],
      [
        "w",
        "its"
      ],
      [
        "in",
        "es"
      ],
      [
        "an",
        "x"
      ],
      [
        "an",
        "no"
      ],
      [
        "re",
        "pe"
      ],
      [
        "on",
        "ed"
      ],
      [
        "as",
        "se"
      ],
      [
        "is",
        "s"
      ],
      [
        "it",
        "ude"
      ],
      [
        "st",
        "umbled"
      ],
      [
        "we",
        "ls"
      ],
      [
        "ro",
        "lling"
      ],
      [
        "ac",
        "ket"
      ],
      [
        "his",
        "tori"
      ],
      [
        "un",
        "t"
      ],
      [
        "ag",
        "ger"
      ],
      [
        "ag",
        "ree"
      ],
      [
        "ce",
        "p"
      ],
      [
        "ho",
        "ped"
      ],
      [
        "co",
        "p"
      ],
      [
        "ter",
        "s"
      ],
      [
        "ter",
        "ror"
      ],
      [
        "pe",
        "ace"
      ],
      [
        "go",
        "llum"
      ],
      [
        "ab",
        "sur"
      ],
      [
        "sh",
        "ine"
      ],
      [
        "lo",
        "se"
      ],
      [
        "end",
        "er"
      ],
      [
        "ex",
        "t"
      ],
      [
        "ex",
        "plan"
      ],
      [
        "tr",
        "ud"
      ],
      [
        "te",
        "mp"
      ],
      [
        "war",
        "ri"
      ],
      [
        "br",
        "ows"
      ],
      [
        "sp",
        "ace"
      ],
      [
        "--",
        "--\""
      ],
      [
        "im",
        "press"
      ],
      [
        "au",
        "ght"
      ],
      [
        "ci",
        "ous"
      ],
      [
        "thr",
        "ush"
      ],
      [
        "pro",
        "te"
      ],
      [
        "did",
        "n"
      ],
      [
        "enger",
        "s"
      ],
      [
        "wor",
        "st"
      ],
      [
        "wat",
        "ched"
      ],
      [
        "dd",
        "ed"
      ],
      [
        "gu",
        "age"
      ],
      [
        "fl",
        "ames"
      ],
      [
        "use",
        "ful"
      ],
      [
        "ring",
        "s"
      ],
      [
        "sup",
        "er"
      ],
      [
        "poin",
        "ts"
      ],
      [
        "tic",
        "al"
      ],
      [
        "stre",
        "tched"
      ],
      [
        "bus",
        "h"
      ],
      [
        "mar",
        "ch"
      ],
      [
        "dan",
        "cing"
      ],
      [
        "set",
        "tled"
      ],
      [
        "sat",
        "is"
      ],
      [
        "tor",
        "n"
      ],
      [
        "ious",
        "ly"
      ],
      [
        "dist",
        "ur"
      ],
      [
        "mes",
        "sage"
      ],
      [
        "je",
        "wels"
      ],
      [
        "exce",
        "eding"
      ],
      [
        "step",
        "ped"
      ],
      [
        "ev",
        "il"
      ],
      [
        "eat",
        "en"
      ],
      [
        "Wi",
        "ld"
      ],
      [
        "real",
        "ized"
      ],
      [
        "slo",
        "pes"
      ],
      [
        "boat",
        "s"
      ],
      [
        "Al",
        "ready"
      ],
      [
        "Su",
        "ch"
      ],
      [
        "num",
        "bers"
      ],
      [
        "carry",
        "ing"
      ],
      [
        "dri",
        "ven"
      ],
      [
        "tw",
        "ink"
      ],
      [
        "exc",
        "ited"
      ],
      [
        "obser",
        "ved"
      ],
      [
        "swift",
        "ly"
      ],
      [
        "lan",
        "guage"
      ],
      [
        "ez",
        "e"
      ],
      [
        "grand",
        "father"
      ],
      [
        "Engl",
        "ish"
      ],
      [
        "sum",
        "mit"
      ],
      [
        "atten",
        "tion"
      ],
      [
        "photograph",
        "s"
      ],
      [
        "import",
        "ant"
      ],
      [
        "Po",
        "or"
      ],
      [
        "Zoolog",
        "ical"
      ],
      [
        "arg",
        "ument"
      ],
      [
        "prep",
        "ared"
      ],
      [
        "volcan",
        "ic"
      ],
      [
        "bam",
        "boo"
      ],
      [
        "absur",
        "d"
      ],
      [
        "C",
        "ar"
      ],
      [
        "D",
        "ur"
      ],
      [
        "G",
        "et"
      ],
      [
        "L",
        "ast"
      ],
      [
        "O",
        "ther"
      ],
      [
        "T",
        "wo"
      ],
      [
        "W",
        "as"
      ],
      [
        "c",
        "il"
      ],
      [
        "d",
        "ense"
      ],
      [
        "f",
        "ate"
      ],
      [
        "f",
        "ring"
      ],
      [
        "g",
        "lo"
      ],
      [
        "h",
        "arp"
      ],
      [
        "i",
        "red"
      ],
      [
        "k",
        "er"
      ],
      [
        "l",
        "at"
      ],
      [
        "m",
        "al"
      ],
      [
        "m",
        "ail"
      ],
      [
        "n",
        "in"
      ],
      [
        "n",
        "ames"
      ],
      [
        "p",
        "ay"
      ],
      [
        "p",
        "ool"
      ],
      [
        "r",
        "s"
      ],
      [
        "r",
        "at"
      ],
      [
        "r",
        "ide"
      ],
      [
        "s",
        "le"
      ],
      [
        "s",
        "ack"
      ],
      [
        "s",
        "ank"
      ],
      [
        "s",
        "words"
      ],
      [
        "s",
        "ending"
      ],
      [
        "t",
        "welve"
      ],
      [
        "v",
        "ag"
      ],
      [
        "w",
        "re"
      ],
      [
        "w",
        "ake"
      ],
      [
        "w",
        "ine"
      ],
      [
        "th",
        "y"
      ],
      [
        "in",
        "tell"
      ],
      [
        "an",
        "ing"
      ],
      [
        "re",
        "turned"
      ],
      [
        "re",
        "fle"
      ],
      [
        "re",
        "present"
      ],
      [
        "er",
        "ous"
      ],
      [
        "he",
        "st"
      ],
      [
        "as",
        "ide"
      ],
      [
        "it",
        "ies"
      ],
      [
        "le",
        "vel"
      ],
      [
        "st",
        "y"
      ],
      [
        "st",
        "it"
      ],
      [
        "st",
        "ony"
      ],
      [
        "me",
        "at"
      ],
      [
        "hi",
        "eld"
      ],
      [
        "ro",
        "de"
      ],
      [
        "ro",
        "ast"
      ],
      [
        "al",
        "though"
      ],
      [
        "ver",
        "s"
      ],
      [
        "li",
        "ed"
      ],
      [
        "li",
        "fted"
      ],
      [
        "ti",
        "ed"
      ],
      [
        "ti",
        "ght"
      ],
      [
        "sa",
        "v"
      ],
      [
        "ent",
        "y"
      ],
      [
        "up",
        "wards"
      ],
      [
        "ho",
        "llow"
      ],
      [
        "am",
        "ped"
      ],
      [
        "mo",
        "der"
      ],
      [
        "ter",
        "n"
      ],
      [
        "ge",
        "ms"
      ],
      [
        "but",
        "ter"
      ],
      [
        "um",
        "b"
      ],
      [
        "ves",
        "ti"
      ],
      [
        "pl",
        "es"
      ],
      [
        "pl",
        "aced"
      ],
      [
        "any",
        "where"
      ],
      [
        "tr",
        "ap"
      ],
      [
        "gr",
        "ay"
      ],
      [
        "br",
        "own"
      ],
      [
        "back",
        "s"
      ],
      [
        "tain",
        "ed"
      ],
      [
        "loo",
        "se"
      ],
      [
        "op",
        "ing"
      ],
      [
        "au",
        "se"
      ],
      [
        "pro",
        "ved"
      ],
      [
        "wor",
        "n"
      ],
      [
        "gu",
        "ide"
      ],
      [
        "fl",
        "ung"
      ],
      [
        "beg",
        "un"
      ],
      [
        "spe",
        "aking"
      ],
      [
        "vi",
        "ous"
      ],
      [
        "tal",
        "ked"
      ],
      [
        "sho",
        "res"
      ],
      [
        "ste",
        "am"
      ],
      [
        "ru",
        "ddy"
      ],
      [
        "wr",
        "ite"
      ],
      [
        "clear",
        "ly"
      ],
      [
        "jo",
        "ined"
      ],
      [
        "gi",
        "ant"
      ],
      [
        "cent",
        "ral"
      ],
      [
        "follow",
        "ing"
      ],
      [
        "gg",
        "ed"
      ],
      [
        "ens",
        "hield"
      ],
      [
        "keep",
        "ing"
      ],
      [
        "min",
        "ute"
      ],
      [
        "mean",
        "while"
      ],
      [
        "direction",
        "s"
      ],
      [
        "vis",
        "it"
      ],
      [
        "arm",
        "our"
      ],
      [
        "return",
        "ing"
      ],
      [
        "bow",
        "ed"
      ],
      [
        "whis",
        "per"
      ],
      [
        "sw",
        "amp"
      ],
      [
        "cir",
        "cl"
      ],
      [
        "real",
        "ize"
      ],
      [
        "fin",
        "ite"
      ],
      [
        "flow",
        "ed"
      ],
      [
        "ra",
        "ised"
      ],
      [
        "letter",
        "s"
      ],
      [
        "experi",
        "ences"
      ],
      [
        "tou",
        "ched"
      ],
      [
        "reg",
        "ard"
      ],
      [
        "bb",
        "ing"
      ],
      [
        "hon",
        "or"
      ],
      [
        "burn",
        "ing"
      ],
      [
        "remain",
        "s"
      ],
      [
        "stru",
        "gg"
      ],
      [
        "IN",
        "G"
      ],
      [
        "inc",
        "ident"
      ],
      [
        "por",
        "tion"
      ],
      [
        "trem",
        "endous"
      ],
      [
        "proceed",
        "ings"
      ],
      [
        "kne",
        "es"
      ],
      [
        "difficul",
        "ty"
      ],
      [
        "scram",
        "bled"
      ],
      [
        "suc",
        "cess"
      ],
      [
        "Un",
        "der"
      ],
      [
        "veget",
        "ation"
      ],
      [
        "exha",
        "usted"
      ],
      [
        "continu",
        "ed"
      ],
      [
        "Oak",
        "enshield"
      ],
      [
        "Car",
        "rock"
      ],
      [
        ",",
        "'"
      ],
      [
        "A",
        "N"
      ],
      [
        "D",
        "own"
      ],
      [
        "E",
        "u"
      ],
      [
        "L",
        "o"
      ],
      [
        "L",
        "onely"
      ],
      [
        "M",
        "an"
      ],
      [
        "O",
        "F"
      ],
      [
        "O",
        "ri"
      ],
      [
        "P",
        "ro"
      ],
      [
        "S",
        "h"
      ],
      [
        "S",
        "tre"
      ],
      [
        "T",
        "e"
      ],
      [
        "b",
        "ing"
      ],
      [
        "b",
        "ay"
      ],
      [
        "b",
        "ough"
      ],
      [
        "c",
        "ro"
      ],
      [
        "d",
        "well"
      ],
      [
        "e",
        "c"
      ],
      [
        "f",
        "arewell"
      ],
      [
        "g",
        "n"
      ],
      [
        "g",
        "ard"
      ],
      [
        "g",
        "est"
      ],
      [
        "i",
        "a"
      ],
      [
        "j",
        "ung"
      ],
      [
        "k",
        "y"
      ],
      [
        "l",
        "ab"
      ],
      [
        "l",
        "air"
      ],
      [
        "m",
        "ood"
      ],
      [
        "m",
        "mer"
      ],
      [
        "m",
        "akes"
      ],
      [
        "p",
        "he"
      ],
      [
        "p",
        "ill"
      ],
      [
        "p",
        "rofessor"
      ],
      [
        "r",
        "um"
      ],
      [
        "s",
        "ad"
      ],
      [
        "s",
        "ca"
      ],
      [
        "t",
        "ch"
      ],
      [
        "t",
        "ons"
      ],
      [
        "th",
        "read"
      ],
      [
        "re",
        "ceived"
      ],
      [
        "on",
        "wards"
      ],
      [
        "en",
        "ing"
      ],
      [
        "en",
        "velo"
      ],
      [
        "ar",
        "ched"
      ],
      [
        "it",
        "able"
      ],
      [
        "ha",
        "ul"
      ],
      [
        "ha",
        "lt"
      ],
      [
        "be",
        "long"
      ],
      [
        "be",
        "lt"
      ],
      [
        "we",
        "ak"
      ],
      [
        "id",
        "s"
      ],
      [
        "ac",
        "ing"
      ],
      [
        "al",
        "oud"
      ],
      [
        "ch",
        "uck"
      ],
      [
        "li",
        "mit"
      ],
      [
        "un",
        "able"
      ],
      [
        "ag",
        "reed"
      ],
      [
        "bo",
        "re"
      ],
      [
        "bo",
        "ther"
      ],
      [
        "us",
        "ually"
      ],
      [
        "ne",
        "l"
      ],
      [
        "ne",
        "cess"
      ],
      [
        "ne",
        "igh"
      ],
      [
        "de",
        "finite"
      ],
      [
        "ast",
        "e"
      ],
      [
        "could",
        "n"
      ],
      [
        "do",
        "m"
      ]
    ]
  }
}